{"\u0100": 0, "\u0101": 1, "\u0102": 2, "\u0103": 3, "\u0104": 4, "\u0105": 5, "\u0106": 6, "\u0107": 7, "\u0108": 8, "\u0109": 9, "\u010a": 10, "\u010b": 11, "\u010c": 12, "\u010d": 13, "\u010e": 14, "\u010f": 15, "\u0110": 16, "\u0111": 17, "\u0112": 18, "\u0113": 19, "\u0114": 20, "\u0115": 21, "\u0116": 22, "\u0117": 23, "\u0118": 24, "\u0119": 25, "\u011a": 26, "\u011b": 27, "\u011c": 28, "\u011d": 29, "\u011e": 30, "\u011f": 31, "\u0120": 32, "!": 33, "\"": 34, "#": 35, "$": 36, "%": 37, "&": 38, "'": 39, "(": 40, ")": 41, "*": 42, "+": 43, ",": 44, "-": 45, ".": 46, "/": 47, "0": 48, "1": 49, "2": 50, "3": 51, "4": 52, "5": 53, "6": 54, "7": 55, "8": 56, "9": 57, ":": 58, ";": 59, "<": 60, "=": 61, ">": 62, "?": 63, "@": 64, "A": 65, "B": 66, "C": 67, "D": 68, "E": 69, "F": 70, "G": 71, "H": 72, "I": 73, "J": 74, "K": 75, "L": 76, "M": 77, "N": 78, "O": 79, "P": 80, "Q": 81, "R": 82, "S": 83, "T": 84, "U": 85, "V": 86, "W": 87, "X": 88, "Y": 89, "Z": 90, "[": 91, "\\": 92, "]": 93, "^": 94, "_": 95, "`": 96, "a": 97, "b": 98, "c": 99, "d": 100, "e": 101, "f": 102, "g": 103, "h": 104, "i": 105, "j": 106, "k": 107, "l": 108, "m": 109, "n": 110, "o": 111, "p": 112, "q": 113, "r": 114, "s": 115, "t": 116, "u": 117, "v": 118, "w": 119, "x": 120, "y": 121, "z": 122, "{": 123, "|": 124, "}": 125, "~": 126, "\u0121": 127, "\u0122": 128, "\u0123": 129, "\u0124": 130, "\u0125": 131, "\u0126": 132, "\u0127": 133, "\u0128": 134, "\u0129": 135, "\u012a": 136, "\u012b": 137, "\u012c": 138, "\u012d": 139, "\u012e": 140, "\u012f": 141, "\u0130": 142, "\u0131": 143, "\u0132": 144, "\u0133": 145, "\u0134": 146, "\u0135": 147, "\u0136": 148, "\u0137": 149, "\u0138": 150, "\u0139": 151, "\u013a": 152, "\u013b": 153, "\u013c": 154, "\u013d": 155, "\u013e": 156, "\u013f": 157, "\u0140": 158, "\u0141": 159, "\u0142": 160, "\u00a1": 161, "\u00a2": 162, "\u00a3": 163, "\u00a4": 164, "\u00a5": 165, "\u00a6": 166, "\u00a7": 167, "\u00a8": 168, "\u00a9": 169, "\u00aa": 170, "\u00ab": 171, "\u00ac": 172, "\u0143": 173, "\u00ae": 174, "\u00af": 175, "\u00b0": 176, "\u00b1": 177, "\u00b2": 178, "\u00b3": 179, "\u00b4": 180, "\u00b5": 181, "\u00b6": 182, "\u00b7": 183, "\u00b8": 184, "\u00b9": 185, "\u00ba": 186, "\u00bb": 187, "\u00bc": 188, "\u00bd": 189, "\u00be": 190, "\u00bf": 191, "\u00c0": 192, "\u00c1": 193, "\u00c2": 194, "\u00c3": 195, "\u00c4": 196, "\u00c5": 197, "\u00c6": 198, "\u00c7": 199, "\u00c8": 200, "\u00c9": 201, "\u00ca": 202, "\u00cb": 203, "\u00cc": 204, "\u00cd": 205, "\u00ce": 206, "\u00cf": 207, "\u00d0": 208, "\u00d1": 209, "\u00d2": 210, "\u00d3": 211, "\u00d4": 212, "\u00d5": 213, "\u00d6": 214, "\u00d7": 215, "\u00d8": 216, "\u00d9": 217, "\u00da": 218, "\u00db": 219, "\u00dc": 220, "\u00dd": 221, "\u00de": 222, "\u00df": 223, "\u00e0": 224, "\u00e1": 225, "\u00e2": 226, "\u00e3": 227, "\u00e4": 228, "\u00e5": 229, "\u00e6": 230, "\u00e7": 231, "\u00e8": 232, "\u00e9": 233, "\u00ea": 234, "\u00eb": 235, "\u00ec": 236, "\u00ed": 237, "\u00ee": 238, "\u00ef": 239, "\u00f0": 240, "\u00f1": 241, "\u00f2": 242, "\u00f3": 243, "\u00f4": 244, "\u00f5": 245, "\u00f6": 246, "\u00f7": 247, "\u00f8": 248, "\u00f9": 249, "\u00fa": 250, "\u00fb": 251, "\u00fc": 252, "\u00fd": 253, "\u00fe": 254, "\u00ff": 255, "\u0100</w>": 256, "\u0101</w>": 257, "\u0102</w>": 258, "\u0103</w>": 259, "\u0104</w>": 260, "\u0105</w>": 261, "\u0106</w>": 262, "\u0107</w>": 263, "\u0108</w>": 264, "\u0109</w>": 265, "\u010a</w>": 266, "\u010b</w>": 267, "\u010c</w>": 268, "\u010d</w>": 269, "\u010e</w>": 270, "\u010f</w>": 271, "\u0110</w>": 272, "\u0111</w>": 273, "\u0112</w>": 274, "\u0113</w>": 275, "\u0114</w>": 276, "\u0115</w>": 277, "\u0116</w>": 278, "\u0117</w>": 279, "\u0118</w>": 280, "\u0119</w>": 281, "\u011a</w>": 282, "\u011b</w>": 283, "\u011c</w>": 284, "\u011d</w>": 285, "\u011e</w>": 286, "\u011f</w>": 287, "\u0120</w>": 288, "!</w>": 289, "\"</w>": 290, "#</w>": 291, "$</w>": 292, "%</w>": 293, "&</w>": 294, "'</w>": 295, "(</w>": 296, ")</w>": 297, "*</w>": 298, "+</w>": 299, ",</w>": 300, "-</w>": 301, ".</w>": 302, "/</w>": 303, "0</w>": 304, "1</w>": 305, "2</w>": 306, "3</w>": 307, "4</w>": 308, "5</w>": 309, "6</w>": 310, "7</w>": 311, "8</w>": 312, "9</w>": 313, ":</w>": 314, ";</w>": 315, "<</w>": 316, "=</w>": 317, "></w>": 318, "?</w>": 319, "@</w>": 320, "A</w>": 321, "B</w>": 322, "C</w>": 323, "D</w>": 324, "E</w>": 325, "F</w>": 326, "G</w>": 327, "H</w>": 328, "I</w>": 329, "J</w>": 330, "K</w>": 331, "L</w>": 332, "M</w>": 333, "N</w>": 334, "O</w>": 335, "P</w>": 336, "Q</w>": 337, "R</w>": 338, "S</w>": 339, "T</w>": 340, "U</w>": 341, "V</w>": 342, "W</w>": 343, "X</w>": 344, "Y</w>": 345, "Z</w>": 346, "[</w>": 347, "\\</w>": 348, "]</w>": 349, "^</w>": 350, "_</w>": 351, "`</w>": 352, "a</w>": 353, "b</w>": 354, "c</w>": 355, "d</w>": 356, "e</w>": 357, "f</w>": 358, "g</w>": 359, "h</w>": 360, "i</w>": 361, "j</w>": 362, "k</w>": 363, "l</w>": 364, "m</w>": 365, "n</w>": 366, "o</w>": 367, "p</w>": 368, "q</w>": 369, "r</w>": 370, "s</w>": 371, "t</w>": 372, "u</w>": 373, "v</w>": 374, "w</w>": 375, "x</w>": 376, "y</w>": 377, "z</w>": 378, "{</w>": 379, "|</w>": 380, "}</w>": 381, "~</w>": 382, "\u0121</w>": 383, "\u0122</w>": 384, "\u0123</w>": 385, "\u0124</w>": 386, "\u0125</w>": 387, "\u0126</w>": 388, "\u0127</w>": 389, "\u0128</w>": 390, "\u0129</w>": 391, "\u012a</w>": 392, "\u012b</w>": 393, "\u012c</w>": 394, "\u012d</w>": 395, "\u012e</w>": 396, "\u012f</w>": 397, "\u0130</w>": 398, "\u0131</w>": 399, "\u0132</w>": 400, "\u0133</w>": 401, "\u0134</w>": 402, "\u0135</w>": 403, "\u0136</w>": 404, "\u0137</w>": 405, "\u0138</w>": 406, "\u0139</w>": 407, "\u013a</w>": 408, "\u013b</w>": 409, "\u013c</w>": 410, "\u013d</w>": 411, "\u013e</w>": 412, "\u013f</w>": 413, "\u0140</w>": 414, "\u0141</w>": 415, "\u0142</w>": 416, "\u00a1</w>": 417, "\u00a2</w>": 418, "\u00a3</w>": 419, "\u00a4</w>": 420, "\u00a5</w>": 421, "\u00a6</w>": 422, "\u00a7</w>": 423, "\u00a8</w>": 424, "\u00a9</w>": 425, "\u00aa</w>": 426, "\u00ab</w>": 427, "\u00ac</w>": 428, "\u0143</w>": 429, "\u00ae</w>": 430, "\u00af</w>": 431, "\u00b0</w>": 432, "\u00b1</w>": 433, "\u00b2</w>": 434, "\u00b3</w>": 435, "\u00b4</w>": 436, "\u00b5</w>": 437, "\u00b6</w>": 438, "\u00b7</w>": 439, "\u00b8</w>": 440, "\u00b9</w>": 441, "\u00ba</w>": 442, "\u00bb</w>": 443, "\u00bc</w>": 444, "\u00bd</w>": 445, "\u00be</w>": 446, "\u00bf</w>": 447, "\u00c0</w>": 448, "\u00c1</w>": 449, "\u00c2</w>": 450, "\u00c3</w>": 451, "\u00c4</w>": 452, "\u00c5</w>": 453, "\u00c6</w>": 454, "\u00c7</w>": 455, "\u00c8</w>": 456, "\u00c9</w>": 457, "\u00ca</w>": 458, "\u00cb</w>": 459, "\u00cc</w>": 460, "\u00cd</w>": 461, "\u00ce</w>": 462, "\u00cf</w>": 463, "\u00d0</w>": 464, "\u00d1</w>": 465, "\u00d2</w>": 466, "\u00d3</w>": 467, "\u00d4</w>": 468, "\u00d5</w>": 469, "\u00d6</w>": 470, "\u00d7</w>": 471, "\u00d8</w>": 472, "\u00d9</w>": 473, "\u00da</w>": 474, "\u00db</w>": 475, "\u00dc</w>": 476, "\u00dd</w>": 477, "\u00de</w>": 478, "\u00df</w>": 479, "\u00e0</w>": 480, "\u00e1</w>": 481, "\u00e2</w>": 482, "\u00e3</w>": 483, "\u00e4</w>": 484, "\u00e5</w>": 485, "\u00e6</w>": 486, "\u00e7</w>": 487, "\u00e8</w>": 488, "\u00e9</w>": 489, "\u00ea</w>": 490, "\u00eb</w>": 491, "\u00ec</w>": 492, "\u00ed</w>": 493, "\u00ee</w>": 494, "\u00ef</w>": 495, "\u00f0</w>": 496, "\u00f1</w>": 497, "\u00f2</w>": 498, "\u00f3</w>": 499, "\u00f4</w>": 500, "\u00f5</w>": 501, "\u00f6</w>": 502, "\u00f7</w>": 503, "\u00f8</w>": 504, "\u00f9</w>": 505, "\u00fa</w>": 506, "\u00fb</w>": 507, "\u00fc</w>": 508, "\u00fd</w>": 509, "\u00fe</w>": 510, "\u00ff</w>": 511, "\"bpe_simple_vocab_16e6.txt#version:0.2": 512, "in": 513, "th": 514, "an": 515, "re": 516, "ar": 517, "er": 518, "the</w>": 519, "ing</w>": 520, "ou": 521, "on": 522, "st": 523, "or": 524, "en": 525, "on</w>": 526, "al": 527, "at": 528, "er</w>": 529, "it": 530, "in</w>": 531, "to</w>": 532, "ro": 533, "is</w>": 534, "le": 535, "ic": 536, "at</w>": 537, "and</w>": 538, "ed</w>": 539, "of</w>": 540, "ch": 541, "or</w>": 542, "es</w>": 543, "il": 544, "el": 545, "st</w>": 546, "ac": 547, "om": 548, "am": 549, "lo": 550, "an</w>": 551, "ay</w>": 552, "sh": 553, "ri": 554, "li": 555, "ti": 556, "for</w>": 557, "ne": 558, "\u00f0\u0141": 559, "ra": 560, "ha": 561, "de": 562, "ol": 563, "ve</w>": 564, "si": 565, "ur": 566, "al</w>": 567, "se": 568, "'s</w>": 569, "un": 570, "di": 571, "be": 572, "la": 573, "wh": 574, "oo": 575, "day</w>": 576, "en</w>": 577, "ma": 578, "no": 579, "le</w>": 580, "to": 581, "our</w>": 582, "ir": 583, "gh": 584, "wit": 585, "it</w>": 586, "yo": 587, "as": 588, "sp": 589, "this</w>": 590, "ts</w>": 591, "ati": 592, "you</w>": 593, "with</w>": 594, "ad": 595, "is": 596, "ab": 597, "ly</w>": 598, "we": 599, "the": 600, "te": 601, "as</w>": 602, "ag": 603, "vi": 604, "pp": 605, "su": 606, "ho": 607, "my</w>": 608, "..": 609, "bu": 610, "com": 611, "se</w>": 612, "ers</w>": 613, "me": 614, "me</w>": 615, "all</w>": 616, "con": 617, "mo": 618, "ke</w>": 619, "ge": 620, "out</w>": 621, "ent</w>": 622, "co": 623, "fe": 624, "ver": 625, "ar</w>": 626, "fro": 627, "au": 628, "po": 629, "ce</w>": 630, "ght</w>": 631, "are</w>": 632, "ss</w>": 633, "from</w>": 634, "ch</w>": 635, "tr": 636, "oun": 637, "one</w>": 638, "by</w>": 639, "do": 640, "th</w>": 641, "wor": 642, "ere</w>": 643, "ke": 644, "pro": 645, "for": 646, "ds</w>": 647, "bo": 648, "ta": 649, "we</w>": 650, "go": 651, "he": 652, "ter</w>": 653, "ing": 654, "de</w>": 655, "be</w>": 656, "ation</w>": 657, "mor": 658, "ay": 659, "ex": 660, "ill</w>": 661, "pe": 662, "ks</w>": 663, "sc": 664, "lu": 665, "fu": 666, "qu": 667, "ver</w>": 668, "\u00f0\u0141\u013a": 669, "ju": 670, "mu": 671, "ate</w>": 672, "and": 673, "ve": 674, "king</w>": 675, "mar": 676, "op": 677, "hi": 678, "...</w>": 679, "pre": 680, "ad</w>": 681, "ru": 682, "that</w>": 683, "jo": 684, "of": 685, "ce": 686, "new</w>": 687, "am</w>": 688, "ap": 689, "gre": 690, "ss": 691, "du": 692, "now</w>": 693, "ye": 694, "ting</w>": 695, "your</w>": 696, "ity</w>": 697, "ni": 698, "ci": 699, "par": 700, "gu": 701, "fi": 702, "af": 703, "per": 704, "ter": 705, "up</w>": 706, "so</w>": 707, "gi": 708, "ons</w>": 709, "gr": 710, "ge</w>": 711, "br": 712, "pl": 713, "'t</w>": 714, "mi": 715, "ine</w>": 716, "wee": 717, "bi": 718, "us</w>": 719, "sho": 720, "have</w>": 721, "today</w>": 722, "av": 723, "man": 724, "ent": 725, "ack</w>": 726, "ure</w>": 727, "our": 728, "\u00e2\u0122": 729, "cu": 730, "ld</w>": 731, "loo": 732, "im": 733, "ice</w>": 734, "som": 735, "fin": 736, "red</w>": 737, "ren": 738, "ood</w>": 739, "was</w>": 740, "tion</w>": 741, "pi": 742, "ir</w>": 743, "ther</w>": 744, "ty</w>": 745, "ph": 746, "ard</w>": 747, "ec": 748, "!!</w>": 749, "mon": 750, "more</w>": 751, "will</w>": 752, "tra": 753, "can</w>": 754, "col": 755, "pu": 756, "te</w>": 757, "wn</w>": 758, "mb": 759, "so": 760, "iti": 761, "just</w>": 762, "ning</w>": 763, "here</w>": 764, "tu": 765, "pa": 766, "pr": 767, "but</w>": 768, "what</w>": 769, "ally</w>": 770, "fir": 771, "min": 772, "ca": 773, "ant</w>": 774, "sa": 775, "ted</w>": 776, "ev": 777, "ment</w>": 778, "fa": 779, "get</w>": 780, "ame</w>": 781, "about</w>": 782, "gra": 783, "not</w>": 784, "happ": 785, "ays</w>": 786, "man</w>": 787, "his</w>": 788, "time</w>": 789, "like</w>": 790, "gh</w>": 791, "has</w>": 792, "than": 793, "love</w>": 794, "art</w>": 795, "ste": 796, "ding</w>": 797, "he</w>": 798, "cre": 799, "ws</w>": 800, "wat": 801, "der</w>": 802, "ite</w>": 803, "ser": 804, "ace</w>": 805, "age</w>": 806, "end</w>": 807, "str": 808, "aw": 809, "stor": 810, "re</w>": 811, "car": 812, "ell</w>": 813, "all": 814, "ps</w>": 815, "fri": 816, "pho": 817, "por": 818, "do</w>": 819, "ak": 820, "wi": 821, "fre": 822, "who</w>": 823, "shi": 824, "boo": 825, "son</w>": 826, "ell": 827, "when</w>": 828, "ill": 829, "how</w>": 830, "great</w>": 831, "win": 832, "el</w>": 833, "bl": 834, "ssi": 835, "ali": 836, "some</w>": 837, "\u00f0\u0141\u0134": 838, "ton": 839, "der": 840, "les</w>": 841, "pla": 842, "\u00ef\u00b8": 843, "ed": 844, "sch": 845, "hu": 846, "ong</w>": 847, "don</w>": 848, "ki": 849, "sh</w>": 850, "ann": 851, "cor": 852, "..</w>": 853, "ound</w>": 854, "az": 855, "ine": 856, "ary</w>": 857, "ful</w>": 858, "stu": 859, "ould</w>": 860, "sti": 861, "go</w>": 862, "see</w>": 863, "able</w>": 864, "ars</w>": 865, "ll</w>": 866, "mis": 867, "ber": 868, "ck</w>": 869, "wa": 870, "ents</w>": 871, "no</w>": 872, "sig": 873, "fe</w>": 874, "first</w>": 875, "et</w>": 876, "spe": 877, "ack": 878, "if</w>": 879, "ous</w>": 880, "'m</w>": 881, "ster</w>": 882, "app": 883, "ang": 884, "ance</w>": 885, "ans</w>": 886, "good</w>": 887, "bre": 888, "ever": 889, "they</w>": 890, "tic": 891, "come</w>": 892, "off": 893, "back</w>": 894, "ase</w>": 895, "ings</w>": 896, "old</w>": 897, "ight</w>": 898, "fo": 899, "her</w>": 900, "happy</w>": 901, "pic": 902, "its</w>": 903, "ving</w>": 904, "us": 905, "mat": 906, "hom": 907, "dy</w>": 908, "em": 909, "sk": 910, "ying</w>": 911, "their</w>": 912, "led</w>": 913, "ry</w>": 914, "ul": 915, "har": 916, "ck": 917, "ton</w>": 918, "onal</w>": 919, "hel": 920, "ric": 921, "bir": 922, "vie": 923, "way</w>": 924, "tri": 925, "da": 926, "ple": 927, "bro": 928, "sto": 929, "ool</w>": 930, "night</w>": 931, "tru": 932, "ba": 933, "read": 934, "res</w>": 935, "year</w>": 936, "fr": 937, "tor": 938, "als</w>": 939, "coun": 940, "cla": 941, "ture</w>": 942, "vel": 943, "ated</w>": 944, "lec": 945, "end": 946, "thing</w>": 947, "vo": 948, "ici": 949, "best</w>": 950, "can": 951, "work</w>": 952, "last</w>": 953, "after</w>": 954, "ence</w>": 955, "pri": 956, "pe</w>": 957, "es": 958, "il</w>": 959, "\u00e2\u0122\u00a6</w>": 960, "dre": 961, "ys</w>": 962, "over</w>": 963, "ies</w>": 964, "\u00f0\u0141\u0133": 965, "comm": 966, "tw": 967, "ink</w>": 968, "sun": 969, "cl": 970, "life</w>": 971, "tt": 972, "ach": 973, "land</w>": 974, "sy": 975, "tre": 976, "tal": 977, "pol": 978, "sm": 979, "duc": 980, "sal": 981, "ft</w>": 982, "'re</w>": 983, "che": 984, "war": 985, "tur": 986, "ations</w>": 987, "ach</w>": 988, "ms</w>": 989, "ile</w>": 990, "pm</w>": 991, "ough</w>": 992, "ate": 993, "star": 994, "week</w>": 995, "!!!</w>": 996, "clu": 997, "there</w>": 998, "ner</w>": 999, "tom": 1000, "sel": 1001, "\u00ef\u00b8\u0131</w>": 1002, "world</w>": 1003, "ves</w>": 1004, "cam": 1005, "got</w>": 1006, "inter": 1007, "off</w>": 1008, "um</w>": 1009, "tonight</w>": 1010, "other</w>": 1011, "hou": 1012, "look</w>": 1013, "je": 1014, "id</w>": 1015, "sion</w>": 1016, "beau": 1017, "att": 1018, "eli": 1019, "ort</w>": 1020, "rec": 1021, "ff": 1022, "ster": 1023, "supp": 1024, "gen": 1025, "been</w>": 1026, "ily</w>": 1027, "team</w>": 1028, "mm": 1029, "ic</w>": 1030, "peop": 1031, "itt": 1032, "ats</w>": 1033, "only</w>": 1034, "mber</w>": 1035, "eng": 1036, "bri": 1037, "mp": 1038, "know</w>": 1039, "bur": 1040, "bar": 1041, "ins</w>": 1042, "low</w>": 1043, "she</w>": 1044, "row</w>": 1045, "\u00e2\u013f": 1046, "tro": 1047, "people</w>": 1048, "via</w>": 1049, "low": 1050, "aga": 1051, "bet": 1052, "xt</w>": 1053, "fac": 1054, "char": 1055, "ear": 1056, "wal": 1057, "sen": 1058, "fam": 1059, "ble</w>": 1060, "nati": 1061, "ish</w>": 1062, "nor": 1063, "game</w>": 1064, "live</w>": 1065, "sco": 1066, "ley</w>": 1067, "don": 1068, "ick</w>": 1069, "ball</w>": 1070, "very</w>": 1071, "these</w>": 1072, "pan": 1073, "ia</w>": 1074, "ating</w>": 1075, "cr": 1076, "are": 1077, "gir": 1078, "make</w>": 1079, "stre": 1080, "show</w>": 1081, ".\"</w>": 1082, "fl": 1083, "up": 1084, "dr": 1085, "thanks</w>": 1086, "illi": 1087, "wom": 1088, "sts</w>": 1089, "ig": 1090, "sur": 1091, "every": 1092, "cur": 1093, "view</w>": 1094, "let</w>": 1095, "into</w>": 1096, "most</w>": 1097, "na": 1098, "indi": 1099, "gar": 1100, "had</w>": 1101, "sou": 1102, "ved</w>": 1103, "ant": 1104, "ition</w>": 1105, "made</w>": 1106, "fol": 1107, "uni": 1108, "ited</w>": 1109, "\u00f0\u0141\u0131": 1110, "ical</w>": 1111, "thr": 1112, "ready</w>": 1113, "chec": 1114, "dra": 1115, "kes</w>": 1116, "book</w>": 1117, "ep</w>": 1118, "sic</w>": 1119, "morning</w>": 1120, "news</w>": 1121, "cau": 1122, "ct</w>": 1123, "well</w>": 1124, "anc": 1125, "photo</w>": 1126, "than</w>": 1127, "ors</w>": 1128, "birth": 1129, "gg": 1130, "out": 1131, "next</w>": 1132, "some": 1133, "ening</w>": 1134, "story</w>": 1135, "chri": 1136, "down</w>": 1137, "home</w>": 1138, "ffe": 1139, "free</w>": 1140, "da</w>": 1141, "bor": 1142, "fil": 1143, "cial</w>": 1144, "thank</w>": 1145, "side</w>": 1146, "lear": 1147, "que": 1148, "line</w>": 1149, "ten": 1150, "ates</w>": 1151, "years</w>": 1152, "my": 1153, "photo": 1154, "beauti": 1155, "right</w>": 1156, "nu": 1157, "form": 1158, "ship</w>": 1159, "ban": 1160, "ther": 1161, "days</w>": 1162, "gam": 1163, "ason</w>": 1164, "gy</w>": 1165, "\u00f0\u0141\u0130": 1166, "birthday</w>": 1167, "set</w>": 1168, "ick": 1169, "et": 1170, "still</w>": 1171, "coming</w>": 1172, "take</w>": 1173, "\u00f0\u0141\u0129": 1174, "bb": 1175, "sol": 1176, "son": 1177, "den": 1178, "ep": 1179, "music</w>": 1180, "them</w>": 1181, "den</w>": 1182, "why</w>": 1183, "foo": 1184, "cra": 1185, "amaz": 1186, "wn": 1187, "hol": 1188, "tting</w>": 1189, "wr": 1190, "ue</w>": 1191, "mag": 1192, "cro": 1193, "lan": 1194, "clo": 1195, "bra": 1196, "ak</w>": 1197, "sing</w>": 1198, "cal": 1199, "read</w>": 1200, "'ve</w>": 1201, "joh": 1202, "bab": 1203, "dri": 1204, "blo": 1205, "big</w>": 1206, "eric": 1207, "int</w>": 1208, "tor</w>": 1209, "try</w>": 1210, "la</w>": 1211, "leg": 1212, "house</w>": 1213, "mic": 1214, "val": 1215, "beautiful</w>": 1216, "litt": 1217, "check</w>": 1218, "new": 1219, "vers": 1220, "sw": 1221, "ari": 1222, "play": 1223, "her": 1224, "\u00e2\u0122\u0135</w>": 1225, "win</w>": 1226, "ma</w>": 1227, "congr": 1228, "school</w>": 1229, "fun": 1230, ".@</w>": 1231, "heal": 1232, "ich</w>": 1233, "del": 1234, "where</w>": 1235, "lon": 1236, "ket</w>": 1237, "two</w>": 1238, "much</w>": 1239, "watch</w>": 1240, "ven": 1241, "ded</w>": 1242, "ast</w>": 1243, "ked</w>": 1244, "bas": 1245, "going</w>": 1246, "mp</w>": 1247, "ever</w>": 1248, "ways</w>": 1249, "roo": 1250, "desig": 1251, "ly": 1252, "sed</w>": 1253, "top</w>": 1254, "lin": 1255, "chan": 1256, "too</w>": 1257, "iting</w>": 1258, "dent</w>": 1259, "ghts</w>": 1260, "ty": 1261, "spo": 1262, "need</w>": 1263, "blu": 1264, "inst": 1265, "being</w>": 1266, "\u00e2\u013f\u00a4": 1267, "wel": 1268, "ls</w>": 1269, "him</w>": 1270, "may</w>": 1271, "sting</w>": 1272, "na</w>": 1273, "ely</w>": 1274, "little</w>": 1275, "ga": 1276, "nat": 1277, "tomor": 1278, "mc": 1279, "hon": 1280, "want</w>": 1281, "air": 1282, "pic</w>": 1283, "americ": 1284, "per</w>": 1285, "less</w>": 1286, "week": 1287, "vel</w>": 1288, "ah</w>": 1289, "cap": 1290, "cham": 1291, "ger": 1292, "tim": 1293, "tomorrow</w>": 1294, "ness</w>": 1295, "state</w>": 1296, "hal": 1297, "serv": 1298, "ze</w>": 1299, "os</w>": 1300, "pat": 1301, "vis": 1302, "exc": 1303, "sin": 1304, "ff</w>": 1305, "city</w>": 1306, "cen": 1307, "any": 1308, "bel": 1309, "summ": 1310, "tin": 1311, "would</w>": 1312, "looking</w>": 1313, "ko": 1314, "cele": 1315, "family</w>": 1316, "mer": 1317, "pow": 1318, "help</w>": 1319, "bus": 1320, "co</w>": 1321, "cle": 1322, "self</w>": 1323, "ens</w>": 1324, "ics</w>": 1325, "tho": 1326, "ani": 1327, "cho": 1328, "lead": 1329, "bs</w>": 1330, "twee": 1331, "think</w>": 1332, "fore</w>": 1333, "chil": 1334, "vide": 1335, "did</w>": 1336, "ale</w>": 1337, "chi": 1338, "vil": 1339, "ends</w>": 1340, "wing</w>": 1341, "pas": 1342, "'ll</w>": 1343, "vol": 1344, "sa</w>": 1345, "gs</w>": 1346, "many</w>": 1347, "jec": 1348, "before</w>": 1349, "graph": 1350, "ny</w>": 1351, "uring</w>": 1352, "wil": 1353, "dd": 1354, "buil": 1355, "fav": 1356, "sted</w>": 1357, "tran": 1358, "ling</w>": 1359, "oud</w>": 1360, "dge</w>": 1361, "fiel": 1362, "national</w>": 1363, "sta": 1364, "cer": 1365, "were</w>": 1366, "ina</w>": 1367, "season</w>": 1368, "cou": 1369, "ned</w>": 1370, "amazing</w>": 1371, "tions</w>": 1372, "celebr": 1373, "ns</w>": 1374, "ath": 1375, "head</w>": 1376, "sday</w>": 1377, "dar": 1378, "loc": 1379, "vin": 1380, "another</w>": 1381, "goo": 1382, "sat": 1383, "ny": 1384, "join</w>": 1385, "pres": 1386, "ses</w>": 1387, "sing": 1388, "ana</w>": 1389, "ining</w>": 1390, "....</w>": 1391, "cour": 1392, "\u00ef\u00b8\u0131": 1393, "act</w>": 1394, "cause</w>": 1395, "light</w>": 1396, "ams</w>": 1397, "ta</w>": 1398, "bal": 1399, "fc</w>": 1400, "high</w>": 1401, "offici": 1402, "tt</w>": 1403, "christ": 1404, "dic": 1405, "day": 1406, "ral</w>": 1407, "hor": 1408, ":)</w>": 1409, "visi": 1410, "nam": 1411, "ob": 1412, "mas</w>": 1413, "ght": 1414, "really</w>": 1415, "tun": 1416, "find</w>": 1417, "through</w>": 1418, "port</w>": 1419, "ut": 1420, "tive</w>": 1421, "sty": 1422, "ne</w>": 1423, "ore</w>": 1424, "\u00f0\u0141\u013a\u0124": 1425, "support</w>": 1426, "never</w>": 1427, "even</w>": 1428, "\u00f0\u0141\u0136": 1429, "ha</w>": 1430, "ya</w>": 1431, "ld": 1432, "uk</w>": 1433, "ran": 1434, "jam": 1435, "with": 1436, "medi": 1437, "des</w>": 1438, "ney</w>": 1439, "ching</w>": 1440, "ale": 1441, "hy": 1442, "kin": 1443, "!!": 1444, "dy": 1445, "place</w>": 1446, "also</w>": 1447, "ble": 1448, "which</w>": 1449, "black</w>": 1450, "bli": 1451, "say</w>": 1452, "park</w>": 1453, "play</w>": 1454, "ire</w>": 1455, "video</w>": 1456, "weekend</w>": 1457, "ail": 1458, "key</w>": 1459, "pt</w>": 1460, "ward</w>": 1461, "friday</w>": 1462, "din": 1463, "iness</w>": 1464, "gro": 1465, "ben": 1466, "always</w>": 1467, "tball</w>": 1468, "ago</w>": 1469, "mil": 1470, "cy": 1471, "produc": 1472, "disc": 1473, "under": 1474, "please</w>": 1475, "spor": 1476, "full</w>": 1477, "ey</w>": 1478, "\u00f0\u0141\u013b": 1479, "ise</w>": 1480, "ities</w>": 1481, "cat": 1482, "kno": 1483, "use</w>": 1484, "fore": 1485, "ker</w>": 1486, "art": 1487, "high": 1488, "open</w>": 1489, "san": 1490, "ef": 1491, "ours</w>": 1492, "shed</w>": 1493, "stri": 1494, "dro": 1495, "again</w>": 1496, "im</w>": 1497, "\u00f0\u0141\u0135": 1498, "enjo": 1499, "fun</w>": 1500, "getting</w>": 1501, "pen": 1502, "ger</w>": 1503, "cli": 1504, "any</w>": 1505, "every</w>": 1506, "eu": 1507, "women</w>": 1508, "\u00e2\u013e": 1509, "est</w>": 1510, "could</w>": 1511, "ry": 1512, "\"@</w>": 1513, "thou": 1514, "sha": 1515, "commun": 1516, "ber</w>": 1517, "dents</w>": 1518, "dis": 1519, "while</w>": 1520, "away</w>": 1521, "dio</w>": 1522, "ham": 1523, "gla": 1524, "date</w>": 1525, "ka</w>": 1526, "miss</w>": 1527, "unch</w>": 1528, "won": 1529, "inf": 1530, "room</w>": 1531, "ga</w>": 1532, "real</w>": 1533, "exper": 1534, "direc": 1535, "should</w>": 1536, "spr": 1537, "gol": 1538, "long</w>": 1539, "better</w>": 1540, "ori": 1541, "ey": 1542, "ience</w>": 1543, "ils</w>": 1544, "zz": 1545, "han": 1546, "found</w>": 1547, "vs</w>": 1548, "\u00e2\u013b": 1549, "post</w>": 1550, "tic</w>": 1551, "part</w>": 1552, "men": 1553, "rence</w>": 1554, "cess</w>": 1555, "vic": 1556, "sil": 1557, "shop</w>": 1558, "\u00f0\u0141\u013a\u0124</w>": 1559, "food</w>": 1560, "val</w>": 1561, "stic</w>": 1562, "you": 1563, "says</w>": 1564, "elec": 1565, "star</w>": 1566, "oc": 1567, "land": 1568, "id": 1569, "ction</w>": 1570, "field</w>": 1571, "sof": 1572, "start</w>": 1573, "water</w>": 1574, "friends</w>": 1575, "ones</w>": 1576, "\u00f0\u0141\u012e": 1577, "fla": 1578, "far": 1579, "white</w>": 1580, "party</w>": 1581, "inst</w>": 1582, "grou": 1583, "tv</w>": 1584, "everyone</w>": 1585, "ment": 1586, "ja": 1587, "cha": 1588, "prin": 1589, "ants</w>": 1590, "during</w>": 1591, "lat": 1592, "lar": 1593, "west</w>": 1594, "then</w>": 1595, "ka": 1596, "youn": 1597, "insp": 1598, "inte": 1599, "ween</w>": 1600, "visit</w>": 1601, "against</w>": 1602, "rele": 1603, "head": 1604, "ces</w>": 1605, "town</w>": 1606, "looks</w>": 1607, "thre": 1608, "regi": 1609, "rent</w>": 1610, "projec": 1611, "girl</w>": 1612, "sear": 1613, "wo": 1614, "mom": 1615, "car</w>": 1616, "hun": 1617, "publi": 1618, "di</w>": 1619, "ple</w>": 1620, "call</w>": 1621, "cri": 1622, "um": 1623, "ford</w>": 1624, "perfe": 1625, "friend</w>": 1626, "hard</w>": 1627, "ssion</w>": 1628, "test</w>": 1629, "playing</w>": 1630, "around</w>": 1631, "because</w>": 1632, "kets</w>": 1633, "meet</w>": 1634, "satur": 1635, "arti": 1636, "work": 1637, "jun": 1638, "ven</w>": 1639, "run": 1640, "member</w>": 1641, "port": 1642, "super": 1643, "twit": 1644, "sam": 1645, "els</w>": 1646, "tly</w>": 1647, "adv": 1648, "ative</w>": 1649, "ath</w>": 1650, "sure</w>": 1651, "avail": 1652, "lar</w>": 1653, "squ": 1654, "ards</w>": 1655, "event</w>": 1656, "men</w>": 1657, "ll": 1658, "over": 1659, "logy</w>": 1660, "ital</w>": 1661, "times</w>": 1662, "mal": 1663, "back": 1664, "coo": 1665, "making</w>": 1666, "stru": 1667, "\u00e2\u0123": 1668, "itu": 1669, "shar": 1670, "gan</w>": 1671, "cas": 1672, "sn": 1673, "summer</w>": 1674, "picture</w>": 1675, "fan": 1676, "hin": 1677, "christmas</w>": 1678, "cy</w>": 1679, "proud</w>": 1680, "champi": 1681, "design</w>": 1682, "pping</w>": 1683, "hope</w>": 1684, "ca</w>": 1685, "available</w>": 1686, "may": 1687, "wed": 1688, "photograph": 1689, "special</w>": 1690, "sale</w>": 1691, "stop</w>": 1692, "ery</w>": 1693, "awe": 1694, "ality</w>": 1695, "history</w>": 1696, "ama</w>": 1697, "presi": 1698, "bru": 1699, "working</w>": 1700, "done</w>": 1701, "dr</w>": 1702, "ken</w>": 1703, "feat": 1704, "wood</w>": 1705, "atest</w>": 1706, "sunday</w>": 1707, "movi": 1708, "vely</w>": 1709, "sle": 1710, "face</w>": 1711, "spec": 1712, "students</w>": 1713, "by": 1714, "ham</w>": 1715, "spon": 1716, "business</w>": 1717, "dat": 1718, "ie</w>": 1719, "ip": 1720, "soci": 1721, "glo": 1722, "hand": 1723, "recor": 1724, "rs</w>": 1725, "mee": 1726, "keep</w>": 1727, "pur": 1728, "health</w>": 1729, "she": 1730, "comple": 1731, "god</w>": 1732, "davi": 1733, "collec": 1734, "list": 1735, "ra</w>": 1736, "club</w>": 1737, "ters</w>": 1738, "inclu": 1739, "things</w>": 1740, "plan": 1741, "\u00e2\u013a": 1742, "john</w>": 1743, "shing</w>": 1744, "atul": 1745, "soon</w>": 1746, "blue</w>": 1747, "gor": 1748, "saturday</w>": 1749, "won</w>": 1750, "congratul": 1751, "see": 1752, "\u00e2\u013f\u00a4\u00ef\u00b8\u0131</w>": 1753, "those</w>": 1754, "\u00f0\u0141\u013a\u012f</w>": 1755, "final</w>": 1756, "dou": 1757, "ith</w>": 1758, "own</w>": 1759, "road</w>": 1760, "tour</w>": 1761, "ast": 1762, "india</w>": 1763, "til</w>": 1764, "nd</w>": 1765, "fer": 1766, "favor": 1767, "sul": 1768, "learn</w>": 1769, "fire</w>": 1770, "just": 1771, "group</w>": 1772, "ah": 1773, "rac": 1774, "body</w>": 1775, "ur</w>": 1776, "care</w>": 1777, "\u00e0\u00b8": 1778, "plo": 1779, "oh</w>": 1780, "pos": 1781, "give</w>": 1782, "tech": 1783, "sub": 1784, "cent": 1785, "ering</w>": 1786, "ym": 1787, "ility</w>": 1788, "fic": 1789, "london</w>": 1790, "vir": 1791, "guys</w>": 1792, "ba</w>": 1793, "\u00f0\u0141\u00a4": 1794, "baby</w>": 1795, "scre": 1796, "\u00f0\u0141\u013a\u012f": 1797, "trump</w>": 1798, "under</w>": 1799, "change</w>": 1800, "ian</w>": 1801, "colle": 1802, "sses</w>": 1803, "ler</w>": 1804, "ssed</w>": 1805, "nice</w>": 1806, "announ": 1807, "power</w>": 1808, "sar": 1809, "aking</w>": 1810, "mini": 1811, "sli": 1812, "swee": 1813, "kar": 1814, "ful": 1815, "cru": 1816, "action</w>": 1817, "ather</w>": 1818, ").</w>": 1819, "stand": 1820, "devel": 1821, "aa": 1822, "gan": 1823, "left</w>": 1824, "lol</w>": 1825, "rel": 1826, "trans": 1827, "ments</w>": 1828, "int": 1829, "ef</w>": 1830, "manag": 1831, "dig": 1832, "gener": 1833, "down": 1834, "pau": 1835, "tiv": 1836, "ku": 1837, "thur": 1838, "ken": 1839, "ston</w>": 1840, "fans</w>": 1841, "talk</w>": 1842, "tweet</w>": 1843, "too": 1844, "style</w>": 1845, "prote": 1846, "secon": 1847, "fron": 1848, "awesome</w>": 1849, "gl": 1850, "pal": 1851, "net": 1852, "sor": 1853, "lau": 1854, "gon": 1855, "since</w>": 1856, "tty</w>": 1857, "series</w>": 1858, "memor": 1859, "beli": 1860, "film</w>": 1861, "did": 1862, "dies</w>": 1863, "ot": 1864, "congratulations</w>": 1865, "pra": 1866, "eve</w>": 1867, "woo": 1868, "official</w>": 1869, "suc": 1870, "incre": 1871, "bon": 1872, "part": 1873, "pped</w>": 1874, "class</w>": 1875, "sive</w>": 1876, "boy</w>": 1877, "cul": 1878, "perfect</w>": 1879, "tou": 1880, "dam": 1881, "welcome</w>": 1882, "football</w>": 1883, "hi</w>": 1884, "pap": 1885, "wait</w>": 1886, "ada</w>": 1887, "congrats</w>": 1888, "young</w>": 1889, "excited</w>": 1890, "rece": 1891, "jan": 1892, "va</w>": 1893, "red": 1894, "stra": 1895, "media</w>": 1896, "'d</w>": 1897, "does</w>": 1898, "let": 1899, "mul": 1900, "ills</w>": 1901, "green</w>": 1902, "mel": 1903, "toge": 1904, "future</w>": 1905, "yester": 1906, "versity</w>": 1907, "form</w>": 1908, "tain</w>": 1909, "ide": 1910, "ches</w>": 1911, "kids</w>": 1912, "qui": 1913, "haha": 1914, "deta": 1915, "big": 1916, "favorite</w>": 1917, "girls</w>": 1918, "contin": 1919, "dom</w>": 1920, "search</w>": 1921, "ual</w>": 1922, "air</w>": 1923, "ders</w>": 1924, "month</w>": 1925, "cer</w>": 1926, "yesterday</w>": 1927, "community</w>": 1928, "ade</w>": 1929, "dog</w>": 1930, "ville</w>": 1931, "ices</w>": 1932, "deli": 1933, "syste": 1934, "run</w>": 1935, "ism</w>": 1936, "heart</w>": 1937, "cup</w>": 1938, "enti": 1939, "few</w>": 1940, "president</w>": 1941, "eds</w>": 1942, "until</w>": 1943, "festi": 1944, "ok": 1945, "flo": 1946, "said</w>": 1947, "ole</w>": 1948, "med": 1949, "travel</w>": 1950, "\u00c2\u00a3</w>": 1951, "phone</w>": 1952, "together</w>": 1953, "fast</w>": 1954, "lot</w>": 1955, "games</w>": 1956, "shir": 1957, "between</w>": 1958, "yes</w>": 1959, "thers</w>": 1960, "doing</w>": 1961, "mac": 1962, "ator</w>": 1963, "band</w>": 1964, "follow": 1965, "project</w>": 1966, "develop": 1967, "diffe": 1968, "confe": 1969, "speci": 1970, "cast</w>": 1971, "ys": 1972, "board</w>": 1973, "rd</w>": 1974, "ial</w>": 1975, "shoo": 1976, "ram": 1977, "having</w>": 1978, "share</w>": 1979, "follow</w>": 1980, "one": 1981, "name</w>": 1982, "mr</w>": 1983, "put</w>": 1984, "discu": 1985, "ory</w>": 1986, "came</w>": 1987, "ous": 1988, "site</w>": 1989, "twitter</w>": 1990, "tb": 1991, "tit": 1992, "finally</w>": 1993, "zed</w>": 1994, "super</w>": 1995, "compan": 1996, "using</w>": 1997, "alls</w>": 1998, "list</w>": 1999, "ris</w>": 2000, "shot</w>": 2001, "gal": 2002, "tar": 2003, "del</w>": 2004, "john": 2005, "\u00e2\u0122\u0136</w>": 2006, "something</w>": 2007, "ram</w>": 2008, "intere": 2009, "whe": 2010, "bit</w>": 2011, "\u00f0\u0141\u012f": 2012, "street</w>": 2013, "ound": 2014, "ai": 2015, "tickets</w>": 2016, "movie</w>": 2017, "real": 2018, "ky": 2019, "taking</w>": 2020, "opp": 2021, "cc</w>": 2022, "lam": 2023, "moun": 2024, "inve": 2025, "black": 2026, "used</w>": 2027, "online</w>": 2028, "yor": 2029, "local</w>": 2030, "gue": 2031, "cks</w>": 2032, "ow": 2033, "gest</w>": 2034, "boys</w>": 2035, "illion</w>": 2036, "cont": 2037, "reci": 2038, "ined</w>": 2039, "euro": 2040, "now": 2041, "seen</w>": 2042, "ph</w>": 2043, "teach": 2044, "def": 2045, "south</w>": 2046, "such</w>": 2047, "award</w>": 2048, "must</w>": 2049, "issu": 2050, "care": 2051, "feel</w>": 2052, "plu": 2053, "latest</w>": 2054, "sports</w>": 2055, "web": 2056, "tex": 2057, "ement</w>": 2058, "sk</w>": 2059, "fic</w>": 2060, "wan": 2061, "tech</w>": 2062, "ot</w>": 2063, "box</w>": 2064, "ner": 2065, "free": 2066, "tal</w>": 2067, "ash": 2068, "case</w>": 2069, "hot</w>": 2070, "wonder": 2071, "meeting</w>": 2072, "era</w>": 2073, "chall": 2074, "\u00f0\u0141\u0132": 2075, "job</w>": 2076, "ili": 2077, "cool</w>": 2078, "jour": 2079, "ths</w>": 2080, "mo</w>": 2081, "fel": 2082, "die</w>": 2083, "micha": 2084, "ele": 2085, "team": 2086, "service</w>": 2087, "stand</w>": 2088, "makes</w>": 2089, "ping</w>": 2090, "early</w>": 2091, "comes</w>": 2092, "ek</w>": 2093, "holi": 2094, "vers</w>": 2095, "ague</w>": 2096, "sau": 2097, "three</w>": 2098, "monday</w>": 2099, "fashi": 2100, "someone</w>": 2101, "thro": 2102, "sea</w>": 2103, "bad</w>": 2104, "suppor": 2105, "turn</w>": 2106, "ury</w>": 2107, "ming</w>": 2108, "photography</w>": 2109, "nic": 2110, "mark</w>": 2111, "pretty</w>": 2112, "ssing</w>": 2113, "watching</w>": 2114, "memb": 2115, "arri": 2116, "county</w>": 2117, "beach</w>": 2118, "fran": 2119, "center</w>": 2120, "police</w>": 2121, "bat": 2122, "public</w>": 2123, "tan": 2124, "press</w>": 2125, "saf": 2126, "sy</w>": 2127, "gets</w>": 2128, "roy": 2129, "ners</w>": 2130, "your": 2131, "buy</w>": 2132, "sters</w>": 2133, "show": 2134, "ased</w>": 2135, "childre": 2136, "afric": 2137, "ines</w>": 2138, "space</w>": 2139, "scri": 2140, "hall</w>": 2141, "pain": 2142, "aring</w>": 2143, "home": 2144, "mur": 2145, "health": 2146, "ched</w>": 2147, "sand": 2148, "recei": 2149, "guy</w>": 2150, "ea": 2151, "american</w>": 2152, "resi": 2153, "children</w>": 2154, "--": 2155, "iri": 2156, "ington</w>": 2157, "country</w>": 2158, "ross</w>": 2159, "len</w>": 2160, "anna</w>": 2161, "books</w>": 2162, "bc</w>": 2163, "ece</w>": 2164, "dom": 2165, "lovely</w>": 2166, "kh": 2167, "pet": 2168, "gy": 2169, "gri": 2170, "stage</w>": 2171, "office</w>": 2172, "rock</w>": 2173, "mon</w>": 2174, "bay</w>": 2175, "table</w>": 2176, "sun</w>": 2177, "med</w>": 2178, "thin": 2179, "lor": 2180, "flow": 2181, "(@</w>": 2182, "university</w>": 2183, "store</w>": 2184, "front</w>": 2185, "good": 2186, "za</w>": 2187, "vote</w>": 2188, "north</w>": 2189, "hey</w>": 2190, "anim": 2191, "order</w>": 2192, "mid": 2193, "without</w>": 2194, "ade": 2195, "remember</w>": 2196, "market</w>": 2197, "??</w>": 2198, "mus": 2199, "training</w>": 2200, "educ": 2201, "but": 2202, "cover</w>": 2203, "stan": 2204, "scen": 2205, "bla": 2206, "break": 2207, "lou": 2208, "same</w>": 2209, "gold</w>": 2210, "ain</w>": 2211, "os": 2212, "both</w>": 2213, "lit": 2214, "vern": 2215, "ai</w>": 2216, "albu": 2217, "pa</w>": 2218, "enjoy</w>": 2219, "beg": 2220, "elling</w>": 2221, "thursday</w>": 2222, "info</w>": 2223, "san</w>": 2224, "america</w>": 2225, "hair</w>": 2226, "tel</w>": 2227, "march</w>": 2228, "concer": 2229, "college</w>": 2230, "conference</w>": 2231, "app</w>": 2232, "hour</w>": 2233, "chang": 2234, "\u00e2\u013c": 2235, "sour": 2236, "ols</w>": 2237, "weather</w>": 2238, "war</w>": 2239, "phi": 2240, "festival</w>": 2241, "second</w>": 2242, "cute</w>": 2243, "prac": 2244, "ener": 2245, "stry</w>": 2246, "lea": 2247, "polit": 2248, "sav": 2249, "sen</w>": 2250, "ow</w>": 2251, "mi</w>": 2252, "near</w>": 2253, "ought</w>": 2254, "ze": 2255, "coffe": 2256, "willi": 2257, "dan": 2258, "sey</w>": 2259, "david</w>": 2260, "ese</w>": 2261, "fan</w>": 2262, "deci": 2263, "theat": 2264, "nov": 2265, "ation": 2266, "trac": 2267, "sci": 2268, "review</w>": 2269, "cel": 2270, "em</w>": 2271, "un</w>": 2272, "july</w>": 2273, "orig": 2274, "tion": 2275, "dru": 2276, "former</w>": 2277, "stay</w>": 2278, "after": 2279, "inv": 2280, "took</w>": 2281, "data</w>": 2282, "bal</w>": 2283, "tues": 2284, "dan</w>": 2285, "evening</w>": 2286, "\u00f0\u0141\u013a\u0124\u00f0\u0141\u013a\u0124": 2287, "dol": 2288, "ures</w>": 2289, "provi": 2290, "ts": 2291, "est": 2292, "sign</w>": 2293, "jac": 2294, "uk": 2295, "song</w>": 2296, "yet</w>": 2297, "bow": 2298, "indu": 2299, "jap": 2300, "hoo": 2301, "point</w>": 2302, "anyone</w>": 2303, "zy</w>": 2304, "ist</w>": 2305, "hur": 2306, "ital": 2307, "building</w>": 2308, "woman</w>": 2309, "chur": 2310, "jer": 2311, "perfor": 2312, "coach</w>": 2313, "league</w>": 2314, "cess": 2315, "net</w>": 2316, "imag": 2317, "nation": 2318, "brit": 2319, "que</w>": 2320, "awards</w>": 2321, "ages</w>": 2322, "works</w>": 2323, "ced</w>": 2324, "mance</w>": 2325, "late</w>": 2326, "ign</w>": 2327, "money</w>": 2328, "true</w>": 2329, "ii</w>": 2330, "tell</w>": 2331, "plac": 2332, "pac": 2333, "asy</w>": 2334, "world": 2335, "behin": 2336, "import": 2337, "reading</w>": 2338, "gram</w>": 2339, "giving</w>": 2340, "met</w>": 2341, "hit</w>": 2342, "forward</w>": 2343, "stom": 2344, "present": 2345, "june</w>": 2346, "social</w>": 2347, "noon</w>": 2348, "mart": 2349, "half</w>": 2350, "swe": 2351, "govern": 2352, "ker": 2353, "details</w>": 2354, "lish</w>": 2355, "__": 2356, "acy</w>": 2357, "sia</w>": 2358, "bert</w>": 2359, "fall</w>": 2360, "!!!!</w>": 2361, "),</w>": 2362, "thi": 2363, "diti": 2364, "sport</w>": 2365, "king": 2366, "fit": 2367, "staf": 2368, "cat</w>": 2369, "muse": 2370, "centr": 2371, "yer</w>": 2372, "contro": 2373, "bloo": 2374, "walk</w>": 2375, "actu": 2376, "didn</w>": 2377, "lim": 2378, "learning</w>": 2379, "research</w>": 2380, "wedne": 2381, "auth": 2382, "hours</w>": 2383, "ky</w>": 2384, "far</w>": 2385, "hen": 2386, "....": 2387, "itch": 2388, "ril</w>": 2389, "strong</w>": 2390, "sky</w>": 2391, "questi": 2392, "james</w>": 2393, "ron": 2394, "dg": 2395, "fur": 2396, "cin": 2397, "does": 2398, "appro": 2399, "marke": 2400, "tures</w>": 2401, "fully</w>": 2402, "chat</w>": 2403, "behind</w>": 2404, "tem": 2405, "fini": 2406, "mission</w>": 2407, "batt": 2408, "feel": 2409, "heav": 2410, "everything</w>": 2411, "bar</w>": 2412, "wish</w>": 2413, "premi": 2414, "ima": 2415, "experience</w>": 2416, "each</w>": 2417, "report</w>": 2418, "sweet</w>": 2419, "tics</w>": 2420, "spring</w>": 2421, "respon": 2422, "system</w>": 2423, "victor": 2424, "lin</w>": 2425, "saw</w>": 2426, "already</w>": 2427, "ghter</w>": 2428, "fle": 2429, "\u00e3\u0125": 2430, "bring</w>": 2431, "album</w>": 2432, "--</w>": 2433, "ells</w>": 2434, "stan</w>": 2435, "tom</w>": 2436, "international</w>": 2437, "went</w>": 2438, "anni": 2439, "match</w>": 2440, "pper</w>": 2441, "stone</w>": 2442, "small</w>": 2443, "rain</w>": 2444, "fashion</w>": 2445, "area</w>": 2446, "van": 2447, "agram</w>": 2448, "ko</w>": 2449, "thought</w>": 2450, "worth</w>": 2451, "van</w>": 2452, "mer</w>": 2453, "coffee</w>": 2454, "ites</w>": 2455, "gn": 2456, "artist</w>": 2457, "con</w>": 2458, "arch": 2459, "cir": 2460, "secre": 2461, "ground</w>": 2462, "iso": 2463, "hand</w>": 2464, "com</w>": 2465, "bridge</w>": 2466, "hs</w>": 2467, "xi": 2468, "link</w>": 2469, "pul": 2470, "spl": 2471, "race</w>": 2472, "fli": 2473, "river</w>": 2474, "gas</w>": 2475, "disco": 2476, "dal": 2477, "player</w>": 2478, "fit</w>": 2479, "photos</w>": 2480, "ity": 2481, "ok</w>": 2482, "jor": 2483, "tra</w>": 2484, "april</w>": 2485, "ads</w>": 2486, "adi": 2487, "solu": 2488, "beauty</w>": 2489, "door</w>": 2490, "mess": 2491, "update</w>": 2492, "alia</w>": 2493, "scho": 2494, "ened</w>": 2495, "moment</w>": 2496, "scot": 2497, "science</w>": 2498, "ior</w>": 2499, "ties</w>": 2500, "across</w>": 2501, "ously</w>": 2502, "shes</w>": 2503, "doesn</w>": 2504, "page</w>": 2505, "water": 2506, "million</w>": 2507, "classi": 2508, "lic": 2509, "cast": 2510, "formation</w>": 2511, "michael</w>": 2512, "ello</w>": 2513, "smo": 2514, "ints</w>": 2515, "vision</w>": 2516, "opening</w>": 2517, "ldn</w>": 2518, "austr": 2519, "tuesday</w>": 2520, "winner</w>": 2521, "possi": 2522, "round</w>": 2523, "shirt</w>": 2524, "dit</w>": 2525, "bo</w>": 2526, "ues</w>": 2527, "illed</w>": 2528, "along</w>": 2529, "trip</w>": 2530, "starting</w>": 2531, "impro": 2532, "kan": 2533, "person</w>": 2534, "not": 2535, "reco": 2536, "needs</w>": 2537, "cle</w>": 2538, "lie</w>": 2539, "rest</w>": 2540, "ring</w>": 2541, "winter</w>": 2542, "simp": 2543, "mom</w>": 2544, "beer</w>": 2545, "face": 2546, "tors</w>": 2547, "usa</w>": 2548, "collection</w>": 2549, "geor": 2550, "session</w>": 2551, "trying</w>": 2552, "las</w>": 2553, "lake</w>": 2554, "jen": 2555, "origin": 2556, "student</w>": 2557, "secur": 2558, "vin</w>": 2559, "pics</w>": 2560, "expe": 2561, "comp": 2562, "gonna</w>": 2563, "equ": 2564, "bad": 2565, "ley": 2566, "au</w>": 2567, "members</w>": 2568, "break</w>": 2569, "wall</w>": 2570, "gic</w>": 2571, "dinner</w>": 2572, "bul": 2573, "inspir": 2574, "ri</w>": 2575, "mind</w>": 2576, "ica</w>": 2577, "winning</w>": 2578, "talking</w>": 2579, "tren": 2580, "sis</w>": 2581, "ten</w>": 2582, "wonderful</w>": 2583, "snow</w>": 2584, "hear</w>": 2585, "thom": 2586, "nothing</w>": 2587, "gui": 2588, "stin": 2589, "blog</w>": 2590, "fest</w>": 2591, "bun": 2592, "lee</w>": 2593, "wards</w>": 2594, "chance</w>": 2595, "dress</w>": 2596, "ren</w>": 2597, "paul</w>": 2598, "pes</w>": 2599, "techno": 2600, "russi": 2601, "card</w>": 2602, "east</w>": 2603, "mari": 2604, "wine</w>": 2605, "ti</w>": 2606, "law</w>": 2607, "stric": 2608, "ki</w>": 2609, "ape</w>": 2610, "augu": 2611, "profe": 2612, "ash</w>": 2613, "course</w>": 2614, "mail</w>": 2615, "rently</w>": 2616, "dun": 2617, "mun": 2618, "love": 2619, "island</w>": 2620, "drive</w>": 2621, "sl": 2622, "ended</w>": 2623, "main</w>": 2624, "lost</w>": 2625, "nature</w>": 2626, "\u00e2\u013f\u00a4\u00ef\u00b8\u0131": 2627, "chic": 2628, "repor": 2629, "pin": 2630, "pro</w>": 2631, "station</w>": 2632, "cep": 2633, "takes</w>": 2634, "company</w>": 2635, "goes</w>": 2636, "ond</w>": 2637, "mach": 2638, "radio</w>": 2639, "dad</w>": 2640, "rock": 2641, "ja</w>": 2642, "pay": 2643, "champion": 2644, "ee": 2645, "inde": 2646, "tta</w>": 2647, "atic</w>": 2648, "tab": 2649, "believe</w>": 2650, "energy</w>": 2651, "zi": 2652, "tat": 2653, "word</w>": 2654, "once</w>": 2655, "resul": 2656, "yl": 2657, "andre": 2658, "ano</w>": 2659, "instagram</w>": 2660, "close</w>": 2661, "tam": 2662, "custom": 2663, "wa</w>": 2664, "conom": 2665, "shows</w>": 2666, "life": 2667, "kin</w>": 2668, "rob": 2669, "tage</w>": 2670, "nation</w>": 2671, "almost</w>": 2672, "listen</w>": 2673, "save</w>": 2674, "reli": 2675, "ace": 2676, "mary</w>": 2677, "tree</w>": 2678, "forget</w>": 2679, "jack": 2680, "waiting</w>": 2681, "director</w>": 2682, "hill</w>": 2683, "born</w>": 2684, "temp": 2685, "fl</w>": 2686, "ste</w>": 2687, "ona</w>": 2688, "single</w>": 2689, "wednesday</w>": 2690, "united</w>": 2691, "ino</w>": 2692, "@_</w>": 2693, "nel</w>": 2694, "celebrate</w>": 2695, "ending</w>": 2696, "deal</w>": 2697, "ji</w>": 2698, "canada</w>": 2699, "huge</w>": 2700, "track</w>": 2701, "\u00e2\u0122\u00a2</w>": 2702, "fy</w>": 2703, "fanta": 2704, "ang</w>": 2705, "york</w>": 2706, "release</w>": 2707, "pun": 2708, "episo": 2709, "words</w>": 2710, "tour": 2711, "pack": 2712, "igh": 2713, "classic</w>": 2714, "performance</w>": 2715, "ket": 2716, "afternoon</w>": 2717, "record</w>": 2718, "wins</w>": 2719, "proble": 2720, "\u00e2\u013f\u00a4</w>": 2721, "four</w>": 2722, "bed</w>": 2723, "bank</w>": 2724, "dance</w>": 2725, "sla": 2726, "called</w>": 2727, "might</w>": 2728, "ap</w>": 2729, "past</w>": 2730, "\u00f0\u0141\u013c": 2731, "different</w>": 2732, "ite": 2733, "gift</w>": 2734, "ssive</w>": 2735, "church</w>": 2736, "cus</w>": 2737, "program</w>": 2738, "hotel</w>": 2739, "ice": 2740, "mad": 2741, "security</w>": 2742, "enge</w>": 2743, "dc</w>": 2744, "enough</w>": 2745, "sta</w>": 2746, "ety</w>": 2747, "dead</w>": 2748, "gun": 2749, "hear": 2750, "mir": 2751, "human</w>": 2752, "gress</w>": 2753, "ounds</w>": 2754, "piece</w>": 2755, "breaking</w>": 2756, "garden</w>": 2757, "fight</w>": 2758, "views</w>": 2759, "fish</w>": 2760, "started</w>": 2761, "running</w>": 2762, "green": 2763, "seri": 2764, "sm</w>": 2765, "ask</w>": 2766, "dor": 2767, "death</w>": 2768, "econom": 2769, "eri": 2770, "ird</w>": 2771, "ser</w>": 2772, "lunch</w>": 2773, "\u00e2\u0123\u00a6": 2774, "box": 2775, "natu": 2776, "base": 2777, "ban</w>": 2778, "fal": 2779, "global</w>": 2780, "wild": 2781, "wow</w>": 2782, "outside</w>": 2783, "move</w>": 2784, "lead</w>": 2785, "anal": 2786, "museum</w>": 2787, "ong": 2788, "haw": 2789, "power": 2790, "thank": 2791, "bac": 2792, "charac": 2793, "campa": 2794, "digital</w>": 2795, "ro</w>": 2796, "oper": 2797, "dev": 2798, "wol": 2799, "pati": 2800, "fa</w>": 2801, "male</w>": 2802, "paper</w>": 2803, "illing</w>": 2804, "cs</w>": 2805, "\u00e2\u0125": 2806, "education</w>": 2807, "taken</w>": 2808, "effe": 2809, "mou": 2810, "sad": 2811, "\".</w>": 2812, "based</w>": 2813, "staff</w>": 2814, "including</w>": 2815, "living</w>": 2816, "ac</w>": 2817, "china</w>": 2818, "mob": 2819, "storm</w>": 2820, "luck</w>": 2821, "phil": 2822, "oo</w>": 2823, "yn": 2824, "travel": 2825, "kel": 2826, "tial</w>": 2827, "price</w>": 2828, "book": 2829, "important</w>": 2830, "bio": 2831, "pool</w>": 2832, "nyc</w>": 2833, "fab": 2834, "load</w>": 2835, "?!</w>": 2836, "challenge</w>": 2837, "cry": 2838, "serve</w>": 2839, "wear</w>": 2840, "bus</w>": 2841, "tain": 2842, "number</w>": 2843, "ror</w>": 2844, "kat": 2845, "iz": 2846, "though</w>": 2847, "hosp": 2848, "mm</w>": 2849, "fair</w>": 2850, "utes</w>": 2851, "hot": 2852, "pop</w>": 2853, "fied</w>": 2854, "camp": 2855, "development</w>": 2856, "libr": 2857, "cali": 2858, "ems</w>": 2859, "\u00e2\u0123\u00a6@</w>": 2860, "bol": 2861, "ised</w>": 2862, "standing</w>": 2863, "model</w>": 2864, "ita</w>": 2865, "gle</w>": 2866, "brown</w>": 2867, "image</w>": 2868, "vered</w>": 2869, "force</w>": 2870, "oil</w>": 2871, "partic": 2872, "shu": 2873, "daily</w>": 2874, "law": 2875, "sec": 2876, "class": 2877, "camp</w>": 2878, "holiday</w>": 2879, "clin": 2880, "kers</w>": 2881, "present</w>": 2882, "game": 2883, "incredi": 2884, "ership</w>": 2885, "interview</w>": 2886, "bill</w>": 2887, "due</w>": 2888, "andy</w>": 2889, "abo": 2890, "innov": 2891, "key": 2892, "acade": 2893, "pil": 2894, "moder": 2895, "stars</w>": 2896, "brand</w>": 2897, "fer</w>": 2898, "weeks</w>": 2899, "consi": 2900, "pre</w>": 2901, "safe": 2902, "writ": 2903, "dium</w>": 2904, "launch</w>": 2905, "marketing</w>": 2906, "annual</w>": 2907, "assi": 2908, "court</w>": 2909, "lady</w>": 2910, "cted</w>": 2911, "anda</w>": 2912, "inside</w>": 2913, "child</w>": 2914, "oppor": 2915, "smith</w>": 2916, "centre</w>": 2917, "gue</w>": 2918, "\u00e2\u0123\u00a9</w>": 2919, "fren": 2920, "sty</w>": 2921, "fort</w>": 2922, "ently</w>": 2923, "isn</w>": 2924, "keep": 2925, "tober</w>": 2926, "ony</w>": 2927, "boy": 2928, "ald</w>": 2929, "colla": 2930, "demo": 2931, "level</w>": 2932, "compet": 2933, "ado</w>": 2934, "bour": 2935, "fantastic</w>": 2936, "mate</w>": 2937, "su</w>": 2938, "south": 2939, "opportun": 2940, "versary</w>": 2941, "later</w>": 2942, "bud": 2943, "facebook</w>": 2944, "laun": 2945, "stern</w>": 2946, "pit": 2947, "!\"</w>": 2948, "maj": 2949, "gram": 2950, "tbt</w>": 2951, "fire": 2952, "happy": 2953, "aks</w>": 2954, "whole</w>": 2955, "actually</w>": 2956, "iller</w>": 2957, "ella</w>": 2958, "lots</w>": 2959, "alex": 2960, "ange": 2961, "lands</w>": 2962, "\u00f0\u0141\u013a\u0143": 2963, "enter": 2964, "rou": 2965, "episode</w>": 2966, "ped</w>": 2967, "inten": 2968, "shire</w>": 2969, "who": 2970, "plan</w>": 2971, "ho</w>": 2972, "cake</w>": 2973, "west": 2974, "magaz": 2975, "fresh</w>": 2976, "cc": 2977, "nar": 2978, "chris</w>": 2979, "writing</w>": 2980, "wer</w>": 2981, "nom": 2982, "lo</w>": 2983, "midd": 2984, "dream</w>": 2985, "ol</w>": 2986, "tional</w>": 2987, "deb": 2988, ">></w>": 2989, "become</w>": 2990, "si</w>": 2991, "grand</w>": 2992, "alling</w>": 2993, "histor": 2994, "ride</w>": 2995, "ired</w>": 2996, "safe</w>": 2997, "queen</w>": 2998, "cil</w>": 2999, "intro": 3000, "vil</w>": 3001, "dani": 3002, "...": 3003, "artic": 3004, "stat": 3005, "short</w>": 3006, "oring</w>": 3007, "selfi": 3008, "missi": 3009, "doc": 3010, "bit": 3011, "gall": 3012, "bom": 3013, "ire": 3014, "selec": 3015, "dition</w>": 3016, "\u00f0\u0141\u0136\u00a5</w>": 3017, "friend": 3018, "beat</w>": 3019, "ghting</w>": 3020, "\u00f0\u0141\u013a\u012c</w>": 3021, "peace</w>": 3022, "exhi": 3023, "anta</w>": 3024, "ability</w>": 3025, "illu": 3026, "jon": 3027, "quality</w>": 3028, "tribu": 3029, "mes</w>": 3030, "players</w>": 3031, "fair": 3032, "cut</w>": 3033, "cab": 3034, "success</w>": 3035, "bi</w>": 3036, "sus</w>": 3037, "promo": 3038, "sche": 3039, "ange</w>": 3040, "ico</w>": 3041, "commit": 3042, "catch</w>": 3043, "illa</w>": 3044, "kind</w>": 3045, "feeling</w>": 3046, "quo": 3047, "say": 3048, "anniversary</w>": 3049, "spot</w>": 3050, "mother</w>": 3051, "ane</w>": 3052, "pend": 3053, "yourself</w>": 3054, "ops</w>": 3055, "apple</w>": 3056, "minutes</w>": 3057, "po</w>": 3058, "grand": 3059, "ries</w>": 3060, "haha</w>": 3061, "career</w>": 3062, "edition</w>": 3063, "dec": 3064, "rick</w>": 3065, "ami</w>": 3066, "concert</w>": 3067, "itive</w>": 3068, "geous</w>": 3069, "dly</w>": 3070, "tte</w>": 3071, "advent": 3072, "ig</w>": 3073, "lights</w>": 3074, "aker</w>": 3075, "sky": 3076, "\u00e2\u0125\u00a3</w>": 3077, "ray</w>": 3078, "finished</w>": 3079, "way": 3080, "sd": 3081, "accoun": 3082, "\u00f0\u0141\u0134\u0137</w>": 3083, "cky</w>": 3084, "chel": 3085, "liter": 3086, "painting</w>": 3087, "los</w>": 3088, "stun": 3089, "technology</w>": 3090, "nas": 3091, "mar</w>": 3092, "bil": 3093, "africa</w>": 3094, "kie</w>": 3095, "eyes</w>": 3096, "golf</w>": 3097, "plus</w>": 3098, "nia</w>": 3099, "itec": 3100, "services</w>": 3101, "wedding</w>": 3102, "known</w>": 3103, "tele": 3104, ".....</w>": 3105, "starts</w>": 3106, "paren": 3107, "wants</w>": 3108, "ational</w>": 3109, "months</w>": 3110, "windo": 3111, "favour": 3112, "ert</w>": 3113, "magazine</w>": 3114, "exclu": 3115, "reve": 3116, "bc": 3117, "original</w>": 3118, "ess": 3119, "nal</w>": 3120, "anti": 3121, "stro": 3122, "tice</w>": 3123, "study</w>": 3124, "\u00e0\u00a4": 3125, "vac": 3126, "national": 3127, "five</w>": 3128, "rain": 3129, "vement</w>": 3130, "ute</w>": 3131, "verse</w>": 3132, "emer": 3133, "army</w>": 3134, "possible</w>": 3135, "guess</w>": 3136, "valley</w>": 3137, "thern</w>": 3138, "crow": 3139, "mr": 3140, "color</w>": 3141, "onto</w>": 3142, "pick</w>": 3143, "clear</w>": 3144, "dark</w>": 3145, "tac": 3146, "wanted</w>": 3147, "itting</w>": 3148, "cancer</w>": 3149, "government</w>": 3150, "die": 3151, "rise</w>": 3152, "zing</w>": 3153, "cold</w>": 3154, "foun": 3155, "studio</w>": 3156, "stration</w>": 3157, "brother</w>": 3158, "ahead</w>": 3159, "shel": 3160, "micro": 3161, "ically</w>": 3162, "dau": 3163, "signed</w>": 3164, "viol": 3165, "ax": 3166, "asse": 3167, "io": 3168, "wre": 3169, "splay</w>": 3170, "chick": 3171, "august</w>": 3172, "plat": 3173, "tips</w>": 3174, "spi": 3175, "human": 3176, "easy</w>": 3177, "logi": 3178, "mike</w>": 3179, "grow": 3180, "agre": 3181, "ww": 3182, "shad": 3183, "motiv": 3184, "wide</w>": 3185, "turns</w>": 3186, "omg</w>": 3187, "var": 3188, "defin": 3189, "sug": 3190, "jim": 3191, "\u00f0\u0141\u0136\u00a5": 3192, "td</w>": 3193, "campaign</w>": 3194, "named</w>": 3195, "retweet</w>": 3196, "cop": 3197, "tv": 3198, "leav": 3199, "kis": 3200, "double</w>": 3201, "smar": 3202, "issue</w>": 3203, "villa": 3204, "information</w>": 3205, "lies</w>": 3206, "stock</w>": 3207, "nt</w>": 3208, "distric": 3209, "shor": 3210, "mix": 3211, "ero": 3212, "sep": 3213, "mex": 3214, "seeing</w>": 3215, "live": 3216, "remin": 3217, "code</w>": 3218, "gur": 3219, "sc</w>": 3220, "wild</w>": 3221, "lun": 3222, "hood</w>": 3223, "spot": 3224, "father</w>": 3225, "forever</w>": 3226, "upd": 3227, "traf": 3228, "fly</w>": 3229, "need": 3230, "gradu": 3231, "train</w>": 3232, "make": 3233, "sab": 3234, "bey": 3235, "size</w>": 3236, "leader</w>": 3237, "talks</w>": 3238, "eu</w>": 3239, "log": 3240, "fox</w>": 3241, "gorgeous</w>": 3242, "less": 3243, "lets</w>": 3244, "surpri": 3245, "myself</w>": 3246, "note</w>": 3247, "lives</w>": 3248, "fru": 3249, "loved</w>": 3250, "sever": 3251, "dem": 3252, "ji": 3253, "soc": 3254, "hold</w>": 3255, "dogs</w>": 3256, "ni</w>": 3257, "\u00e2\u0140": 3258, "leave</w>": 3259, "airport</w>": 3260, "benef": 3261, "expl": 3262, "ships</w>": 3263, "complete</w>": 3264, "achi": 3265, "great": 3266, "vintage</w>": 3267, "jack</w>": 3268, "roc": 3269, "wood": 3270, "priv": 3271, "offer</w>": 3272, "eye</w>": 3273, "version</w>": 3274, "tea</w>": 3275, "coach": 3276, "offic": 3277, "well": 3278, "gen</w>": 3279, "sat</w>": 3280, "hh": 3281, "youth</w>": 3282, "ox": 3283, "?\"</w>": 3284, "mt</w>": 3285, "mix</w>": 3286, "gg</w>": 3287, "dle</w>": 3288, "natural</w>": 3289, "build</w>": 3290, "breakfast</w>": 3291, "thinking</w>": 3292, "theatre</w>": 3293, "moon</w>": 3294, "berg</w>": 3295, "goals</w>": 3296, "george</w>": 3297, "ene": 3298, "excell": 3299, "iling</w>": 3300, "tune</w>": 3301, "yed</w>": 3302, "gate</w>": 3303, "mit": 3304, "network</w>": 3305, "joe</w>": 3306, "hello</w>": 3307, "fb</w>": 3308, "tube</w>": 3309, "wearing</w>": 3310, "athle": 3311, "struc": 3312, "hard": 3313, "glass</w>": 3314, "gers</w>": 3315, "throw": 3316, "ges</w>": 3317, "bt": 3318, "industry</w>": 3319, "management</w>": 3320, "alist</w>": 3321, "goal</w>": 3322, "stream</w>": 3323, "yel": 3324, "avi": 3325, "icious</w>": 3326, "others</w>": 3327, "ski": 3328, "christi": 3329, "bird</w>": 3330, "esc": 3331, "min</w>": 3332, "tro</w>": 3333, "lt</w>": 3334, "jan</w>": 3335, "imp": 3336, "rights</w>": 3337, "sha</w>": 3338, "organ": 3339, "central</w>": 3340, "ara</w>": 3341, "roll</w>": 3342, "favourite</w>": 3343, "chester</w>": 3344, "else</w>": 3345, "pay</w>": 3346, "cars</w>": 3347, "mine</w>": 3348, "step</w>": 3349, "practice</w>": 3350, "major</w>": 3351, "hang": 3352, "\u00f0\u0141\u013a\u013a</w>": 3353, "non</w>": 3354, "vari": 3355, "engine": 3356, "volun": 3357, "dia</w>": 3358, "iled</w>": 3359, "architec": 3360, "pink</w>": 3361, "ds": 3362, "thy</w>": 3363, "wash": 3364, "website</w>": 3365, "bag</w>": 3366, "control</w>": 3367, "elli": 3368, "fra": 3369, "answ": 3370, "dence</w>": 3371, "yu": 3372, "ron</w>": 3373, "ola</w>": 3374, "gin": 3375, "drin": 3376, "lic</w>": 3377, "couple</w>": 3378, "spar": 3379, "gon</w>": 3380, "create</w>": 3381, "ct": 3382, "celebrating</w>": 3383, "deep</w>": 3384, "eat</w>": 3385, "tee</w>": 3386, "voice</w>": 3387, "drop</w>": 3388, "visit": 3389, "ators</w>": 3390, "stadium</w>": 3391, "ft": 3392, "wis": 3393, "rol": 3394, "grade</w>": 3395, "famil": 3396, "points</w>": 3397, "repre": 3398, "was": 3399, "traffic</w>": 3400, "japan</w>": 3401, "org": 3402, "honor</w>": 3403, "texas</w>": 3404, "manu": 3405, "\u00e2\u013b\u00a5</w>": 3406, "safety</w>": 3407, "rer</w>": 3408, "bag": 3409, "emplo": 3410, "released</w>": 3411, "regu": 3412, "aka</w>": 3413, "nav": 3414, "role</w>": 3415, "senior</w>": 3416, "spect</w>": 3417, "cross</w>": 3418, "lines</w>": 3419, "best": 3420, "pack</w>": 3421, "sin</w>": 3422, "tie</w>": 3423, "missing</w>": 3424, "sunset</w>": 3425, "liber": 3426, "ising</w>": 3427, "jay": 3428, "ski</w>": 3429, "championship</w>": 3430, "activ": 3431, "ladies</w>": 3432, "played</w>": 3433, "yy": 3434, "publ": 3435, "alo": 3436, "pride</w>": 3437, "sr": 3438, "paki": 3439, "lux": 3440, "survi": 3441, "cked</w>": 3442, "ets</w>": 3443, "chocol": 3444, "australia</w>": 3445, "paris</w>": 3446, "miles</w>": 3447, "hat": 3448, "mental</w>": 3449, "ala</w>": 3450, "mean</w>": 3451, "mobile</w>": 3452, "ena</w>": 3453, "insi": 3454, "found": 3455, "chief</w>": 3456, "tag": 3457, "incredible</w>": 3458, "return</w>": 3459, "\u00c3\u00a9": 3460, "google</w>": 3461, "french</w>": 3462, "crew</w>": 3463, "hallo": 3464, "alian</w>": 3465, "jaz": 3466, "cher</w>": 3467, "silver</w>": 3468, "north": 3469, "english</w>": 3470, "baseball</w>": 3471, "caf": 3472, "limited</w>": 3473, "following</w>": 3474, "appreci": 3475, "earth</w>": 3476, "kir": 3477, "vember</w>": 3478, "wed</w>": 3479, "ption</w>": 3480, "ged</w>": 3481, "october</w>": 3482, "flori": 3483, "cr</w>": 3484, "ency</w>": 3485, "gave</w>": 3486, "lord</w>": 3487, "stuff</w>": 3488, "berry</w>": 3489, "post": 3490, "smile</w>": 3491, "broad": 3492, "state": 3493, "gger</w>": 3494, "means</w>": 3495, "icy</w>": 3496, "gun</w>": 3497, "yo</w>": 3498, "master</w>": 3499, "burg</w>": 3500, "hands</w>": 3501, "nie</w>": 3502, "//</w>": 3503, "union</w>": 3504, "british</w>": 3505, "biggest</w>": 3506, "district</w>": 3507, "aming</w>": 3508, "hil": 3509, "oce": 3510, "person": 3511, "pass</w>": 3512, "envir": 3513, "schools</w>": 3514, "arrived</w>": 3515, "ances</w>": 3516, "inspired</w>": 3517, "expla": 3518, "ben</w>": 3519, "library</w>": 3520, "bott": 3521, "amp": 3522, "steph": 3523, "contact</w>": 3524, "bang": 3525, "ms": 3526, "califor": 3527, "told</w>": 3528, "battle</w>": 3529, "bb</w>": 3530, "chicago</w>": 3531, "\u00e2\u013e\u00a8</w>": 3532, "strate": 3533, "shi</w>": 3534, "dece": 3535, "-)</w>": 3536, "add</w>": 3537, "lab": 3538, "jones</w>": 3539, "legend</w>": 3540, "castle</w>": 3541, "inger</w>": 3542, "stance</w>": 3543, "bel</w>": 3544, "ura</w>": 3545, "refu": 3546, "leaders</w>": 3547, "pot": 3548, "sex": 3549, "hic": 3550, "article</w>": 3551, "kid</w>": 3552, "france</w>": 3553, "xx</w>": 3554, "exe": 3555, "guide</w>": 3556, "volunte": 3557, "print</w>": 3558, "ali</w>": 3559, "ceo</w>": 3560, "tweets</w>": 3561, "wx</w>": 3562, "scene</w>": 3563, "volu": 3564, "anti</w>": 3565, "han</w>": 3566, "associ": 3567, "sharing</w>": 3568, "rose</w>": 3569, "minister</w>": 3570, "sher": 3571, "inste": 3572, "clean": 3573, "democr": 3574, "poster</w>": 3575, "skin</w>": 3576, "psy": 3577, "proper": 3578, "crazy</w>": 3579, "iam": 3580, "ore": 3581, "ini</w>": 3582, "anything</w>": 3583, "pod": 3584, "moving</w>": 3585, "click</w>": 3586, "explo": 3587, "comb": 3588, "craft</w>": 3589, "fi</w>": 3590, "blood</w>": 3591, "isra": 3592, "public": 3593, "dent": 3594, "olym": 3595, "england</w>": 3596, "asi": 3597, "cher": 3598, "fact</w>": 3599, "environ": 3600, "harry</w>": 3601, "gone</w>": 3602, "medic": 3603, "enjoying</w>": 3604, "justice</w>": 3605, "jr</w>": 3606, "indian</w>": 3607, "wife</w>": 3608, "sound</w>": 3609, "tes</w>": 3610, "drawing</w>": 3611, "pal</w>": 3612, "idea</w>": 3613, "crit": 3614, "juli": 3615, "iler</w>": 3616, "warm</w>": 3617, "clar": 3618, "thoughts</w>": 3619, "defen": 3620, "council</w>": 3621, "introduc": 3622, "died</w>": 3623, "janu": 3624, "ani</w>": 3625, "send</w>": 3626, "lier</w>": 3627, "ml": 3628, "interesting</w>": 3629, "trade</w>": 3630, "wind</w>": 3631, "bay": 3632, "sac": 3633, "ancy</w>": 3634, "source</w>": 3635, "bes</w>": 3636, "organi": 3637, "arly</w>": 3638, "large</w>": 3639, "ffici": 3640, "tag</w>": 3641, "ut</w>": 3642, "desp": 3643, "oes</w>": 3644, "title</w>": 3645, "sym": 3646, "pictures</w>": 3647, "open": 3648, "women": 3649, "showing</w>": 3650, "ria</w>": 3651, "least</w>": 3652, "leadership</w>": 3653, "current</w>": 3654, "electr": 3655, "valent": 3656, "listening</w>": 3657, "ckey</w>": 3658, "general</w>": 3659, "deser": 3660, "duce</w>": 3661, ";)</w>": 3662, "cent</w>": 3663, "\u00f0\u0141\u013a\u012f\u00f0\u0141\u013a\u012f": 3664, "scott</w>": 3665, "poor</w>": 3666, "selfie</w>": 3667, "events</w>": 3668, "ion</w>": 3669, "wrong</w>": 3670, "dev</w>": 3671, "hill": 3672, "septe": 3673, "culture</w>": 3674, "line": 3675, "sorry</w>": 3676, "sent</w>": 3677, "sister</w>": 3678, "cept</w>": 3679, "kri": 3680, "november</w>": 3681, "ari</w>": 3682, "announce</w>": 3683, "zation</w>": 3684, "bran": 3685, "gent": 3686, "du</w>": 3687, "len": 3688, "pers": 3689, "fm</w>": 3690, "martin</w>": 3691, "op</w>": 3692, "emb": 3693, "ome": 3694, "middle</w>": 3695, "success": 3696, "peter</w>": 3697, "january</w>": 3698, "flu": 3699, "racing</w>": 3700, "dav": 3701, "bike</w>": 3702, "\u00f0\u0141\u0131\u00bb</w>": 3703, "pet</w>": 3704, "shoot</w>": 3705, "professi": 3706, "featuring</w>": 3707, "september</w>": 3708, "nowplaying</w>": 3709, "staur": 3710, "za": 3711, "onic</w>": 3712, "quick</w>": 3713, "baske": 3714, "speaking</w>": 3715, "milit": 3716, "zer</w>": 3717, "chicken</w>": 3718, "bell</w>": 3719, "sad</w>": 3720, "coast</w>": 3721, "loving</w>": 3722, "yers</w>": 3723, "dj</w>": 3724, "panel</w>": 3725, "verage</w>": 3726, "swit": 3727, "icks</w>": 3728, "bou": 3729, "california</w>": 3730, "sam</w>": 3731, "parents</w>": 3732, "ero</w>": 3733, "killed</w>": 3734, "phys": 3735, "jobs</w>": 3736, "migr": 3737, "anth": 3738, "emo": 3739, "halloween</w>": 3740, "ander": 3741, "cm</w>": 3742, "competition</w>": 3743, "eag": 3744, "sket": 3745, "spir": 3746, "maybe</w>": 3747, "exclusive</w>": 3748, "appe": 3749, "journey</w>": 3750, "screen</w>": 3751, "ford": 3752, "io</w>": 3753, "hate</w>": 3754, "ug": 3755, "soul</w>": 3756, "hero</w>": 3757, "society</w>": 3758, "syn": 3759, "guit": 3760, "nh": 3761, "dj": 3762, "ases</w>": 3763, "impre": 3764, "time": 3765, "sales</w>": 3766, "dd</w>": 3767, "fts</w>": 3768, "summit</w>": 3769, "stunning</w>": 3770, "oms</w>": 3771, "turned</w>": 3772, "clean</w>": 3773, "soft</w>": 3774, "beat": 3775, "restaur": 3776, "dered</w>": 3777, "ences</w>": 3778, "magic</w>": 3779, "dio": 3780, "shine</w>": 3781, "guest</w>": 3782, "healthy</w>": 3783, "exhib": 3784, "stories</w>": 3785, "popu": 3786, "nis</w>": 3787, "ela</w>": 3788, "below</w>": 3789, "funny</w>": 3790, "results</w>": 3791, "sne": 3792, "currently</w>": 3793, "ard": 3794, "download</w>": 3795, "flight</w>": 3796, "mal</w>": 3797, "fine</w>": 3798, "pad": 3799, "chu": 3800, "ented</w>": 3801, "hat</w>": 3802, "\u00f0\u0141\u0133\u0131": 3803, "steve</w>": 3804, "jo</w>": 3805, "mark": 3806, "rat": 3807, "ball": 3808, "pc</w>": 3809, "pon": 3810, "bby</w>": 3811, "oli": 3812, "arts</w>": 3813, "asure</w>": 3814, "bowl</w>": 3815, "attack</w>": 3816, "mic</w>": 3817, "dear</w>": 3818, "range</w>": 3819, "enter</w>": 3820, "chocolate</w>": 3821, "brilli": 3822, "access</w>": 3823, ",\"</w>": 3824, "???</w>": 3825, "chap": 3826, "const": 3827, "tn": 3828, "matter</w>": 3829, "blue": 3830, "gallery</w>": 3831, "emp": 3832, "workshop</w>": 3833, "leading</w>": 3834, "yours</w>": 3835, "basketball</w>": 3836, "wanna</w>": 3837, "thu": 3838, "__</w>": 3839, "marri": 3840, "sleep</w>": 3841, "bia</w>": 3842, "che</w>": 3843, "mad</w>": 3844, "impact</w>": 3845, "own": 3846, "sir</w>": 3847, "channel</w>": 3848, "europe</w>": 3849, "esp": 3850, "kitch": 3851, "hospital</w>": 3852, "wra": 3853, "royal</w>": 3854, "fs</w>": 3855, "neu": 3856, "quar": 3857, "ney": 3858, "acks</w>": 3859, "chase</w>": 3860, "ppy</w>": 3861, "stal": 3862, "ately</w>": 3863, "tim</w>": 3864, "december</w>": 3865, "rare</w>": 3866, "perform": 3867, "cream</w>": 3868, "weight</w>": 3869, "choo": 3870, "night": 3871, "haven</w>": 3872, "franc": 3873, "khan</w>": 3874, "built</w>": 3875, "helping</w>": 3876, "trust</w>": 3877, "type</w>": 3878, "golden</w>": 3879, "tax</w>": 3880, "snow": 3881, "swi": 3882, "disa": 3883, "questions</w>": 3884, "vey</w>": 3885, "light": 3886, "cn": 3887, "cloud</w>": 3888, "thomas</w>": 3889, "aged</w>": 3890, "shou": 3891, "teams</w>": 3892, "gran": 3893, "reason</w>": 3894, "aa</w>": 3895, "youtube</w>": 3896, "vp</w>": 3897, "pizz": 3898, "manager</w>": 3899, "bury</w>": 3900, "credit</w>": 3901, "treat</w>": 3902, "max</w>": 3903, "ik": 3904, "main": 3905, "ging</w>": 3906, "dead": 3907, "probab": 3908, "yeah</w>": 3909, "\u00e3\u0124": 3910, "brand": 3911, "soli": 3912, "plant</w>": 3913, "tayl": 3914, "girl": 3915, "\u00f0\u0141\u013a\u0143</w>": 3916, "nament</w>": 3917, "auto": 3918, "message</w>": 3919, "kore": 3920, "nur": 3921, "terr": 3922, "agu": 3923, "map</w>": 3924, "senting</w>": 3925, "loves</w>": 3926, "gives</w>": 3927, "gab": 3928, "zen</w>": 3929, "robert</w>": 3930, "confir": 3931, "wars</w>": 3932, "om</w>": 3933, "stain": 3934, "camera</w>": 3935, "ander</w>": 3936, "wonder</w>": 3937, "ab</w>": 3938, "cap</w>": 3939, "sold</w>": 3940, "suit</w>": 3941, "walking</w>": 3942, "continue</w>": 3943, "effec": 3944, "daughter</w>": 3945, "danc": 3946, "chain</w>": 3947, "multi": 3948, "kid": 3949, "yan": 3950, "champion</w>": 3951, "vo</w>": 3952, "tains</w>": 3953, "host</w>": 3954, "mini</w>": 3955, "missed</w>": 3956, "resc": 3957, "lyn": 3958, "finish</w>": 3959, "delicious</w>": 3960, "sas": 3961, "taylor</w>": 3962, "ib": 3963, "promis": 3964, "products</w>": 3965, "mountain</w>": 3966, "florida</w>": 3967, "register</w>": 3968, "treat": 3969, "recent</w>": 3970, "female</w>": 3971, "booth</w>": 3972, "matt</w>": 3973, "vehic": 3974, "sop": 3975, "motor": 3976, "supporting</w>": 3977, "phic</w>": 3978, "extre": 3979, "drink</w>": 3980, "lane</w>": 3981, "third</w>": 3982, "ps": 3983, "constru": 3984, "cere": 3985, "farm</w>": 3986, "\u00f0\u0141\u0130\u012b</w>": 3987, "tured</w>": 3988, "\u00f0\u0141\u0133\u012b</w>": 3989, "cats</w>": 3990, "aj": 3991, "gie</w>": 3992, "shooting</w>": 3993, "asked</w>": 3994, "pakistan</w>": 3995, "ame": 3996, "mb</w>": 3997, "gil": 3998, "legal</w>": 3999, "square</w>": 4000, "invol": 4001, "draw</w>": 4002, "oooo": 4003, "!!!!": 4004, "opportunity</w>": 4005, "py": 4006, "ei": 4007, "bts</w>": 4008, "teacher</w>": 4009, "character</w>": 4010, "johnson</w>": 4011, "bron": 4012, "lywood</w>": 4013, "chine": 4014, "cing</w>": 4015, "cine": 4016, "dge": 4017, "gaming</w>": 4018, "russia</w>": 4019, "cia</w>": 4020, "quote</w>": 4021, "rich</w>": 4022, "gov": 4023, "flowers</w>": 4024, "spiri": 4025, "stin</w>": 4026, "growth</w>": 4027, "\u00f0\u0141\u0131\u00bc</w>": 4028, "commer": 4029, "juni": 4030, "mum</w>": 4031, "ran</w>": 4032, "sna": 4033, "aren": 4034, "cb": 4035, "actor</w>": 4036, "color": 4037, "sit</w>": 4038, "pair</w>": 4039, "chi</w>": 4040, "bow</w>": 4041, "academy</w>": 4042, "held</w>": 4043, "rang": 4044, "metal</w>": 4045, "yl</w>": 4046, "active</w>": 4047, "probably</w>": 4048, "tch</w>": 4049, "needed</w>": 4050, "spee": 4051, "choice</w>": 4052, "italy</w>": 4053, "ryan</w>": 4054, "\u00f0\u0141\u0129\u00ba": 4055, "flower</w>": 4056, "vit": 4057, "mn</w>": 4058, "foundation</w>": 4059, "bak": 4060, "sions</w>": 4061, "neigh": 4062, "floo": 4063, "heard</w>": 4064, "remo": 4065, "fresh": 4066, "inging</w>": 4067, "ref": 4068, "town": 4069, "clou": 4070, "jesus</w>": 4071, "spirit</w>": 4072, "couldn</w>": 4073, "zes</w>": 4074, "\u00f0\u0141\u0134\u013b</w>": 4075, "williams</w>": 4076, "proce": 4077, "modern</w>": 4078, "process</w>": 4079, "shoes</w>": 4080, "created</w>": 4081, "tric</w>": 4082, "issues</w>": 4083, "anne</w>": 4084, "atten": 4085, "debut</w>": 4086, "hr</w>": 4087, "nit": 4088, "stig": 4089, "apo": 4090, "eps</w>": 4091, "zu": 4092, "\u00e3\u0122": 4093, "six</w>": 4094, "cards</w>": 4095, "langu": 4096, "famous</w>": 4097, "tournament</w>": 4098, "sel</w>": 4099, "ebay</w>": 4100, "yn</w>": 4101, "ston": 4102, "kick": 4103, "announced</w>": 4104, "kam": 4105, "voc": 4106, "brilliant</w>": 4107, "house": 4108, "cheese</w>": 4109, "warri": 4110, "music": 4111, "hockey</w>": 4112, "\u00f0\u0141\u013a\u0124\u00f0\u0141\u013a\u0124</w>": 4113, "skills</w>": 4114, "autom": 4115, "smart</w>": 4116, "medical</w>": 4117, "mony</w>": 4118, "ex</w>": 4119, "guar": 4120, "give": 4121, "personal</w>": 4122, "vention</w>": 4123, "alli": 4124, "press": 4125, "floor</w>": 4126, "mc</w>": 4127, "victory</w>": 4128, "him": 4129, "simple</w>": 4130, "thor": 4131, "\u00f0\u0141\u0129\u00ba\u00f0\u0141\u0129": 4132, "tail</w>": 4133, "lucky</w>": 4134, "alex</w>": 4135, "quite</w>": 4136, "bot": 4137, "ssions</w>": 4138, "challeng": 4139, "cann": 4140, "amazon</w>": 4141, "hell</w>": 4142, "bought</w>": 4143, "):</w>": 4144, "edy</w>": 4145, "secret</w>": 4146, "production</w>": 4147, "independ": 4148, "defe": 4149, "added</w>": 4150, "pr</w>": 4151, "pag": 4152, "bed": 4153, "greatest</w>": 4154, "within</w>": 4155, "jay</w>": 4156, "\u00f0\u0141\u00a5": 4157, "ireland</w>": 4158, "rely</w>": 4159, "sd</w>": 4160, "text</w>": 4161, "driving</w>": 4162, "program": 4163, "speed</w>": 4164, "colum": 4165, "stron": 4166, "\u00c3\u00a9</w>": 4167, "forest</w>": 4168, "\u00e2\u0138": 4169, "machine</w>": 4170, "coin</w>": 4171, "scar": 4172, "ount</w>": 4173, "bie</w>": 4174, "\u00a1\u00ef\u00b8\u0131</w>": 4175, "portra": 4176, "common</w>": 4177, "wrest": 4178, "received</w>": 4179, "know": 4180, "invest": 4181, "plans</w>": 4182, "accor": 4183, "adop": 4184, "tery</w>": 4185, "reali": 4186, "pp</w>": 4187, "kal": 4188, "artwork</w>": 4189, "mean": 4190, "god": 4191, "instead</w>": 4192, "anci": 4193, "motivation</w>": 4194, "asing</w>": 4195, "inspiration</w>": 4196, "upcoming</w>": 4197, "political</w>": 4198, "europe": 4199, "mers</w>": 4200, "heavy</w>": 4201, "\u00f0\u0141\u0133\u012f</w>": 4202, "febru": 4203, "scotland</w>": 4204, "ough": 4205, "bt</w>": 4206, "boss</w>": 4207, "schedu": 4208, "speak</w>": 4209, "nick": 4210, "ured</w>": 4211, "ino": 4212, "ek": 4213, "risk</w>": 4214, "tory</w>": 4215, "presents</w>": 4216, "bon</w>": 4217, "rug": 4218, "states</w>": 4219, "exhibition</w>": 4220, "ilo": 4221, "mill": 4222, "brought</w>": 4223, ":-)</w>": 4224, "touri": 4225, "come": 4226, "officially</w>": 4227, "champions</w>": 4228, "doors</w>": 4229, "rep": 4230, "pose</w>": 4231, "extra</w>": 4232, "kings</w>": 4233, "soccer</w>": 4234, "squad</w>": 4235, "applic": 4236, "ata</w>": 4237, "sometimes</w>": 4238, "tari": 4239, "excellent</w>": 4240, "\u00f0\u0141\u013a\u013a": 4241, "straight</w>": 4242, "carol": 4243, "rip</w>": 4244, "\u00e2\u0122\u012f": 4245, "graphic</w>": 4246, "mol": 4247, "election</w>": 4248, "february</w>": 4249, "asons</w>": 4250, "li</w>": 4251, "dir": 4252, "mt": 4253, "nick</w>": 4254, "usu": 4255, "mrs</w>": 4256, "comics</w>": 4257, "institu": 4258, "corpor": 4259, "vi</w>": 4260, "\u00f0\u0141\u013b\u0131": 4261, "tural</w>": 4262, "dise": 4263, "acci": 4264, "weare": 4265, "among</w>": 4266, "shopping</w>": 4267, "till</w>": 4268, "what": 4269, "chair</w>": 4270, "span": 4271, "chinese</w>": 4272, "innovation</w>": 4273, "joy</w>": 4274, "kit</w>": 4275, "century</w>": 4276, "obama</w>": 4277, "phili": 4278, "fc": 4279, "reach</w>": 4280, "citi": 4281, "ulous</w>": 4282, "non": 4283, "dang": 4284, "happening</w>": 4285, "burn</w>": 4286, "pel": 4287, "orange</w>": 4288, "dv": 4289, "kick</w>": 4290, "claim": 4291, "ingham</w>": 4292, "phy</w>": 4293, "nov</w>": 4294, "podcast</w>": 4295, "whi": 4296, "nights</w>": 4297, "earlier</w>": 4298, "bear</w>": 4299, "lah</w>": 4300, "exciting</w>": 4301, "ora</w>": 4302, "given</w>": 4303, "slo": 4304, "memories</w>": 4305, "continues</w>": 4306, "product</w>": 4307, "gho": 4308, "cd": 4309, "knows</w>": 4310, "\u00f0\u0141\u0130\u012b": 4311, "published</w>": 4312, "discuss</w>": 4313, "yard</w>": 4314, "iphone</w>": 4315, "tries</w>": 4316, "wall": 4317, "feb</w>": 4318, "aren</w>": 4319, "truth</w>": 4320, "winners</w>": 4321, "ture": 4322, "ditional</w>": 4323, "military</w>": 4324, "problem</w>": 4325, "mand": 4326, "dog": 4327, "loss</w>": 4328, "cric": 4329, "canadi": 4330, "veter": 4331, "village</w>": 4332, "\",</w>": 4333, "yr</w>": 4334, "ung</w>": 4335, "donald</w>": 4336, "aging</w>": 4337, "birds</w>": 4338, "scienti": 4339, "les": 4340, "this": 4341, "region</w>": 4342, "tical</w>": 4343, "itten</w>": 4344, "ila</w>": 4345, "\u00f0\u0141\u013a\u0130</w>": 4346, "dad": 4347, "diam": 4348, "above</w>": 4349, "stren": 4350, "lit</w>": 4351, "pir": 4352, "lab</w>": 4353, "focus</w>": 4354, "busy</w>": 4355, "dur": 4356, "apply</w>": 4357, "sma": 4358, "author</w>": 4359, "aci": 4360, "execu": 4361, "domin": 4362, "rela": 4363, "jackson</w>": 4364, "ato</w>": 4365, "washington</w>": 4366, "\u00f0\u0141\u013b\u012e": 4367, "kill</w>": 4368, "popular</w>": 4369, "cement</w>": 4370, "road": 4371, "eating</w>": 4372, "location</w>": 4373, "vent": 4374, "arre": 4375, "nan": 4376, "custo": 4377, "adventure</w>": 4378, "ordin": 4379, "sport": 4380, "ult</w>": 4381, "lock</w>": 4382, "question</w>": 4383, "driver</w>": 4384, "landsc": 4385, "oni": 4386, "kins</w>": 4387, "pd": 4388, "jordan</w>": 4389, "tered</w>": 4390, "kk": 4391, "af</w>": 4392, "child": 4393, "sp</w>": 4394, "justin</w>": 4395, "eni": 4396, "selling</w>": 4397, "zo": 4398, "whit": 4399, "boston</w>": 4400, "particip": 4401, "signing</w>": 4402, "happened</w>": 4403, "heat</w>": 4404, "mam": 4405, "dreams</w>": 4406, "lows</w>": 4407, "graph</w>": 4408, "theday</w>": 4409, "heading</w>": 4410, "bro</w>": 4411, "blessed</w>": 4412, "vic</w>": 4413, "vegas</w>": 4414, "hd</w>": 4415, "inning</w>": 4416, "roman": 4417, "andro": 4418, "denti": 4419, "use": 4420, "cit": 4421, "progress</w>": 4422, "writer</w>": 4423, "bob</w>": 4424, "ffs</w>": 4425, "growing</w>": 4426, "bly</w>": 4427, "aware": 4428, "exam": 4429, "spent</w>": 4430, "bet</w>": 4431, "score</w>": 4432, "beyond</w>": 4433, "docu": 4434, "adel": 4435, "sf": 4436, "coura": 4437, "collabor": 4438, "inc</w>": 4439, "private</w>": 4440, "boat</w>": 4441, "**</w>": 4442, "zone</w>": 4443, "pha": 4444, "bill": 4445, "total</w>": 4446, "planning</w>": 4447, "towards</w>": 4448, "places</w>": 4449, "preview</w>": 4450, "creative</w>": 4451, "damn</w>": 4452, "ideas</w>": 4453, "seems</w>": 4454, "poten": 4455, "saying</w>": 4456, "display</w>": 4457, "sw</w>": 4458, "aqu": 4459, "louis</w>": 4460, "bye</w>": 4461, "lil</w>": 4462, "email</w>": 4463, "western</w>": 4464, "germany</w>": 4465, "eller</w>": 4466, "res": 4467, "fant": 4468, "mentary</w>": 4469, "deals</w>": 4470, "richard</w>": 4471, "jersey</w>": 4472, "streng": 4473, "rad": 4474, "pizza</w>": 4475, "mond</w>": 4476, "ware</w>": 4477, "lac": 4478, "gi</w>": 4479, "archi": 4480, "cd</w>": 4481, "yellow</w>": 4482, "recently</w>": 4483, "reach": 4484, "\u00e0\u00b9": 4485, "kitchen</w>": 4486, "designed</w>": 4487, "try": 4488, "gal</w>": 4489, "restaurant</w>": 4490, "ature</w>": 4491, "ww</w>": 4492, "jas": 4493, "lma": 4494, "\u00f0\u0141\u0133\u012e</w>": 4495, "pain</w>": 4496, "avo": 4497, "minute</w>": 4498, "schol": 4499, "therap": 4500, "ticket</w>": 4501, "dry</w>": 4502, "japan": 4503, "ditions</w>": 4504, "terri": 4505, "selves</w>": 4506, "happen</w>": 4507, "tup</w>": 4508, "mag</w>": 4509, "copy</w>": 4510, "sher</w>": 4511, "freedom</w>": 4512, "file</w>": 4513, "specially</w>": 4514, "toronto</w>": 4515, "load": 4516, "gary</w>": 4517, "rey</w>": 4518, "answer</w>": 4519, "loy": 4520, "caught</w>": 4521, "prize</w>": 4522, "une": 4523, "fication</w>": 4524, "niger": 4525, "syd": 4526, "touch</w>": 4527, "feature</w>": 4528, "jazz</w>": 4529, "records</w>": 4530, "himself</w>": 4531, "dish</w>": 4532, "rober": 4533, "spotted</w>": 4534, "master": 4535, "wave</w>": 4536, "finals</w>": 4537, "bull": 4538, "forum</w>": 4539, "ald": 4540, "recomm": 4541, "cha</w>": 4542, "ae</w>": 4543, "doo": 4544, "instru": 4545, "truly</w>": 4546, "lg": 4547, "ink": 4548, "brothers</w>": 4549, "dest</w>": 4550, "jim</w>": 4551, "mit</w>": 4552, "closed</w>": 4553, "ison</w>": 4554, "tried</w>": 4555, "santa</w>": 4556, "affe": 4557, "wan</w>": 4558, "horse</w>": 4559, "grow</w>": 4560, "campus</w>": 4561, "relation": 4562, "native</w>": 4563, "journ": 4564, "gov</w>": 4565, "oct</w>": 4566, "kit": 4567, "bound</w>": 4568, "partner</w>": 4569, "rema": 4570, "crowd</w>": 4571, "!)</w>": 4572, "calls</w>": 4573, "rail": 4574, "quali": 4575, "solution</w>": 4576, "contest</w>": 4577, "convers": 4578, "snap": 4579, "base</w>": 4580, "initi": 4581, "tax": 4582, "ye</w>": 4583, "entrepre": 4584, "itor</w>": 4585, "construction</w>": 4586, "food": 4587, "presented</w>": 4588, "nings</w>": 4589, "climate</w>": 4590, "km</w>": 4591, "model": 4592, "bj": 4593, "block</w>": 4594, "presentation</w>": 4595, "dream": 4596, "fix": 4597, "calling</w>": 4598, "busine": 4599, "congress</w>": 4600, "understand</w>": 4601, "web</w>": 4602, "value</w>": 4603, "\u00ef\u00b8\u0131\u00e2\u0125\u00a3</w>": 4604, "mexico</w>": 4605, "itely</w>": 4606, "kim</w>": 4607, "charity</w>": 4608, "reflec": 4609, "blan": 4610, "flying</w>": 4611, "analy": 4612, "families</w>": 4613, "band": 4614, "recipe</w>": 4615, "celebration</w>": 4616, "accep": 4617, "ary": 4618, "tot": 4619, "gb</w>": 4620, "interested</w>": 4621, "captain</w>": 4622, "\u00e2\u013b\u00a5": 4623, "tip</w>": 4624, "absol": 4625, "braz": 4626, "investig": 4627, "ology</w>": 4628, "dec</w>": 4629, "truck</w>": 4630, "vering</w>": 4631, "clear": 4632, "dont</w>": 4633, "gotta</w>": 4634, "advis": 4635, "begins</w>": 4636, "mass": 4637, "descri": 4638, "block": 4639, "kim": 4640, "david": 4641, "songs</w>": 4642, "memorial</w>": 4643, "features</w>": 4644, "sustain": 4645, "'.</w>": 4646, "grab</w>": 4647, "jose": 4648, "va": 4649, "conserv": 4650, "sets</w>": 4651, "manchester</w>": 4652, "fighting</w>": 4653, "degre": 4654, "aga</w>": 4655, "ind</w>": 4656, "sleep": 4657, "position</w>": 4658, "hair": 4659, "signs</w>": 4660, "policy</w>": 4661, "ito</w>": 4662, "alert</w>": 4663, "stam": 4664, "spend</w>": 4665, "wy": 4666, "absolut": 4667, "dm</w>": 4668, "animal</w>": 4669, "myster": 4670, "successful</w>": 4671, "problems</w>": 4672, "robo": 4673, "kay": 4674, "garden": 4675, "pd</w>": 4676, "mayor</w>": 4677, "dale</w>": 4678, "tol": 4679, "offers</w>": 4680, "visiting</w>": 4681, "friendly</w>": 4682, "trees</w>": 4683, "officer</w>": 4684, "account</w>": 4685, "kevin</w>": 4686, "\u00f0\u0141\u0133\u012f": 4687, "giant</w>": 4688, "continu": 4689, "consu": 4690, "tract</w>": 4691, "nfl</w>": 4692, "\u00f0\u0141\u013a\u012c": 4693, "hq</w>": 4694, "bility</w>": 4695, "aar": 4696, "disney</w>": 4697, "teen</w>": 4698, "oned</w>": 4699, "white": 4700, "trailer</w>": 4701, "dedic": 4702, "alone</w>": 4703, "absolutely</w>": 4704, "digital": 4705, "william</w>": 4706, "ination</w>": 4707, "swa": 4708, "ee</w>": 4709, "entire</w>": 4710, "german</w>": 4711, "roll": 4712, "hits</w>": 4713, "cost</w>": 4714, "stay": 4715, "tha</w>": 4716, "alive</w>": 4717, "according</w>": 4718, "cot": 4719, "literally</w>": 4720, "herit": 4721, "reti": 4722, "hahaha</w>": 4723, "experi": 4724, "likes</w>": 4725, "gt</w>": 4726, "steel</w>": 4727, "____": 4728, "chair": 4729, "christian</w>": 4730, "tower</w>": 4731, "difference</w>": 4732, "md</w>": 4733, "tress</w>": 4734, "mid</w>": 4735, "prince</w>": 4736, "african</w>": 4737, "feder": 4738, "foot</w>": 4739, "carri": 4740, "served</w>": 4741, "rice</w>": 4742, "shall</w>": 4743, "featured</w>": 4744, "cker</w>": 4745, "recru": 4746, "poe": 4747, "sense</w>": 4748, "nific": 4749, "comedy</w>": 4750, "content</w>": 4751, "fat": 4752, "posted</w>": 4753, "contribu": 4754, "timate</w>": 4755, "liver": 4756, "mble</w>": 4757, "internet</w>": 4758, "age": 4759, "european</w>": 4760, "cling</w>": 4761, "glad</w>": 4762, "ffic": 4763, "sco</w>": 4764, "akes</w>": 4765, "elle</w>": 4766, "termin": 4767, "tony</w>": 4768, "pale": 4769, "colour</w>": 4770, "serious</w>": 4771, "patri": 4772, "movies</w>": 4773, "bm": 4774, "professional</w>": 4775, "ado": 4776, "alu": 4777, "bringing</w>": 4778, "falls</w>": 4779, "israel</w>": 4780, "term</w>": 4781, "language</w>": 4782, "brook": 4783, "mann</w>": 4784, "communic": 4785, "cannot</w>": 4786, "acti": 4787, "phe": 4788, "yan</w>": 4789, "entreprene": 4790, "turkey</w>": 4791, "logical</w>": 4792, "long": 4793, "arm</w>": 4794, "urs</w>": 4795, "workers</w>": 4796, "ingly</w>": 4797, "ggs</w>": 4798, "ric</w>": 4799, "tual</w>": 4800, "receive</w>": 4801, "opens</w>": 4802, "gear</w>": 4803, "social": 4804, "feet</w>": 4805, "cking</w>": 4806, "adver": 4807, "finan": 4808, "feels</w>": 4809, "spla": 4810, "hr": 4811, "easter</w>": 4812, "brain</w>": 4813, "\u00e3\u0123": 4814, "fig": 4815, "ledge</w>": 4816, "nearly</w>": 4817, "protect</w>": 4818, "massive</w>": 4819, "eth": 4820, "awa": 4821, "\u00f0\u0141\u013a\u0123</w>": 4822, "yrs</w>": 4823, "awareness</w>": 4824, "definitely</w>": 4825, "kn": 4826, "imagine</w>": 4827, "ku</w>": 4828, "systems</w>": 4829, "\u00f0\u0141\u0133\u0131</w>": 4830, "fas": 4831, "lik": 4832, "provide</w>": 4833, "amo": 4834, "discover</w>": 4835, "influ": 4836, "maker</w>": 4837, "gaz": 4838, "fitness</w>": 4839, "street": 4840, "ers": 4841, "ted": 4842, "wc": 4843, "ysis</w>": 4844, "positive</w>": 4845, "helped</w>": 4846, "quest</w>": 4847, "andrew</w>": 4848, "brad": 4849, "bin": 4850, "hanging</w>": 4851, "ling": 4852, "bright</w>": 4853, "section</w>": 4854, "mass</w>": 4855, "\u00f0\u0141\u013b\u012e</w>": 4856, "followers</w>": 4857, "hosting</w>": 4858, "tempor": 4859, "flag</w>": 4860, "ave</w>": 4861, "letter</w>": 4862, "kur": 4863, "requi": 4864, "often</w>": 4865, "cryp": 4866, "suff": 4867, "\u00e2\u013c\u00bd": 4868, "russian</w>": 4869, "treatment</w>": 4870, "alle": 4871, "hay": 4872, "lan</w>": 4873, "keeping</w>": 4874, "holy</w>": 4875, "powerful</w>": 4876, "predic": 4877, "fund</w>": 4878, "especially</w>": 4879, "window</w>": 4880, "jewel": 4881, "ily": 4882, "\u00f0\u0141\u0134\u013e</w>": 4883, "generation</w>": 4884, "appa": 4885, "seriously</w>": 4886, "od": 4887, "\u00f0\u0141\u013a\u0124\u00f0\u0141\u013a\u0124\u00f0\u0141\u013a\u0124</w>": 4888, "certi": 4889, "irish</w>": 4890, "\u00f0\u0141\u0133\u012e": 4891, "miami</w>": 4892, "beth</w>": 4893, "vity</w>": 4894, "secu": 4895, "chef</w>": 4896, "crime</w>": 4897, "graphy</w>": 4898, "max": 4899, "artists</w>": 4900, "revolu": 4901, "guard</w>": 4902, "speech</w>": 4903, "uc": 4904, "updates</w>": 4905, "faces</w>": 4906, "stant</w>": 4907, "changed</w>": 4908, "reports</w>": 4909, "lower</w>": 4910, "pear": 4911, "nc</w>": 4912, "kil": 4913, "looked</w>": 4914, "speaker</w>": 4915, "sf</w>": 4916, "respect</w>": 4917, "okay</w>": 4918, "ocean</w>": 4919, "sitting</w>": 4920, "architecture</w>": 4921, "trail</w>": 4922, "seat</w>": 4923, "ira": 4924, "leg</w>": 4925, "japanese</w>": 4926, "dam</w>": 4927, "ular</w>": 4928, "swim": 4929, "politics</w>": 4930, "financial</w>": 4931, "old": 4932, "mouth</w>": 4933, "attemp": 4934, "destin": 4935, "fishing</w>": 4936, "attention</w>": 4937, "mem": 4938, "changes</w>": 4939, "decided</w>": 4940, "religi": 4941, "gin</w>": 4942, "cav": 4943, "zz</w>": 4944, "adam</w>": 4945, "mac</w>": 4946, "write</w>": 4947, "begin</w>": 4948, "scul": 4949, "alter": 4950, "iss</w>": 4951, "athon</w>": 4952, "images</w>": 4953, "moo": 4954, "joined</w>": 4955, "\u00f0\u0141\u013a\u012b</w>": 4956, "\u00e2\u0140\u00a1\u00ef\u00b8\u0131</w>": 4957, "passed</w>": 4958, "musli": 4959, "hir": 4960, "largest</w>": 4961, "camer": 4962, "comic</w>": 4963, "ghted</w>": 4964, "rugby</w>": 4965, "burgh</w>": 4966, "gging</w>": 4967, "testing</w>": 4968, "prepar": 4969, "laugh": 4970, "aled</w>": 4971, "improve</w>": 4972, "believ": 4973, "advice</w>": 4974, "shares</w>": 4975, "heart": 4976, "turning</w>": 4977, "sb</w>": 4978, "tel": 4979, "cafe</w>": 4980, "nes</w>": 4981, "daniel</w>": 4982, "patter": 4983, "tz</w>": 4984, "sett": 4985, "park": 4986, "cand": 4987, "stick</w>": 4988, "happens</w>": 4989, "brian</w>": 4990, "newest</w>": 4991, "epic</w>": 4992, "ador": 4993, "kies</w>": 4994, "warning</w>": 4995, "animals</w>": 4996, "custom</w>": 4997, "arc": 4998, "dian</w>": 4999, "gold": 5000, "core</w>": 5001, "tf</w>": 5002, "city": 5003, "pants</w>": 5004, "reality</w>": 5005, "confi": 5006, "inju": 5007, "fox": 5008, "guil": 5009, "knew</w>": 5010, "\u00e2\u013a\u00ba": 5011, "correc": 5012, "itude</w>": 5013, "dden</w>": 5014, ".#</w>": 5015, "reduc": 5016, "pass": 5017, "fon": 5018, "ya": 5019, "owner</w>": 5020, "returns</w>": 5021, "nc": 5022, "east": 5023, "apol": 5024, "insur": 5025, "tho</w>": 5026, "sim": 5027, "junior</w>": 5028, "bee</w>": 5029, "angel": 5030, "attle</w>": 5031, "electric</w>": 5032, "horror</w>": 5033, "crash</w>": 5034, "eye": 5035, "path</w>": 5036, "southern</w>": 5037, "employe": 5038, "geo": 5039, "tan</w>": 5040, "haz": 5041, "rally</w>": 5042, "\u00f0\u0141\u0131\u00bb": 5043, "property</w>": 5044, "wasn</w>": 5045, "enjoyed</w>": 5046, "grey</w>": 5047, "gas": 5048, "brew": 5049, "northern</w>": 5050, "holding</w>": 5051, "gp</w>": 5052, "take": 5053, "chart</w>": 5054, "lyn</w>": 5055, "drama</w>": 5056, "zo</w>": 5057, "paid</w>": 5058, "throwback</w>": 5059, "cup": 5060, "discussion</w>": 5061, "downtown</w>": 5062, "will": 5063, "lew": 5064, "bis": 5065, "tary</w>": 5066, "bread</w>": 5067, "upon</w>": 5068, "rate</w>": 5069, "teachers</w>": 5070, "itation</w>": 5071, "anced</w>": 5072, "cycle</w>": 5073, "choose</w>": 5074, "dc": 5075, "iran</w>": 5076, "cow": 5077, "dave</w>": 5078, "raise</w>": 5079, "princess</w>": 5080, "faith</w>": 5081, "-></w>": 5082, "industri": 5083, "spain</w>": 5084, "guitar</w>": 5085, "facts</w>": 5086, "mn": 5087, "spen": 5088, "courte": 5089, "gott": 5090, "projects</w>": 5091, "audi": 5092, "osc": 5093, "peter": 5094, "sand</w>": 5095, "interest</w>": 5096, "happiness</w>": 5097, "venue</w>": 5098, "soldi": 5099, "surprise</w>": 5100, "potential</w>": 5101, "perio": 5102, "customer</w>": 5103, "ii": 5104, "gni": 5105, "manufac": 5106, "eco": 5107, "broken</w>": 5108, "singer</w>": 5109, "vels</w>": 5110, "wales</w>": 5111, "hus": 5112, "inj": 5113, "four": 5114, "talent</w>": 5115, "dying</w>": 5116, "matthe": 5117, "film": 5118, "joining</w>": 5119, "sell</w>": 5120, "jar": 5121, "lmao</w>": 5122, "surger": 5123, "bbc": 5124, "sources</w>": 5125, "austin</w>": 5126, "nik": 5127, "charles</w>": 5128, "fam</w>": 5129, "princi": 5130, "angel</w>": 5131, "cash</w>": 5132, "lot": 5133, "ored</w>": 5134, "plays</w>": 5135, "plate</w>": 5136, "done": 5137, "memory</w>": 5138, "brings</w>": 5139, "nba</w>": 5140, "solutions</w>": 5141, "teaching</w>": 5142, "grace</w>": 5143, "circu": 5144, "helps</w>": 5145, "founder</w>": 5146, "mary": 5147, "explore</w>": 5148, "decor": 5149, "parts</w>": 5150, "cho</w>": 5151, "integr": 5152, "hau": 5153, "ises</w>": 5154, "putting</w>": 5155, "iner</w>": 5156, "rit": 5157, "vy</w>": 5158, "michel": 5159, "blues</w>": 5160, "everyday</w>": 5161, "forms</w>": 5162, "bio</w>": 5163, "year": 5164, "pin</w>": 5165, "tter</w>": 5166, "spring": 5167, "))</w>": 5168, "pot</w>": 5169, "aling</w>": 5170, "performing</w>": 5171, "shan": 5172, "planet</w>": 5173, "musical</w>": 5174, "heads</w>": 5175, "italian</w>": 5176, "strugg": 5177, "\u00e2\u0122\u012f\u00e2\u013b": 5178, "wings</w>": 5179, "pump": 5180, "hh</w>": 5181, "trou": 5182, "aid</w>": 5183, "prime</w>": 5184, "earth": 5185, "paint</w>": 5186, "mont": 5187, "amy</w>": 5188, "bbc</w>": 5189, "fabulous</w>": 5190, "fruit</w>": 5191, "android</w>": 5192, "bourne</w>": 5193, "ceremony</w>": 5194, "ential</w>": 5195, "??": 5196, "debate</w>": 5197, "oning</w>": 5198, "draft</w>": 5199, "solar</w>": 5200, "tx</w>": 5201, "jam</w>": 5202, "corn": 5203, "!!!!!</w>": 5204, "broo": 5205, "milk</w>": 5206, "posed</w>": 5207, "ohi": 5208, "movement</w>": 5209, "bren": 5210, "partner": 5211, "pg</w>": 5212, "ette</w>": 5213, "aries</w>": 5214, "shout</w>": 5215, "ng</w>": 5216, "leaving</w>": 5217, "tells</w>": 5218, "sens": 5219, "taste</w>": 5220, "kelly</w>": 5221, "worl": 5222, "gym</w>": 5223, "rich": 5224, "egy": 5225, "pid</w>": 5226, "mas": 5227, "\u00e2\u0124": 5228, "courtesy</w>": 5229, "frank</w>": 5230, "increase</w>": 5231, "written</w>": 5232, "ppers</w>": 5233, "rel</w>": 5234, "hai</w>": 5235, "sas</w>": 5236, "sound": 5237, "tti</w>": 5238, "wich</w>": 5239, "river": 5240, "...\"</w>": 5241, "ag</w>": 5242, "fellow</w>": 5243, "rome</w>": 5244, "small": 5245, "gency</w>": 5246, "ican</w>": 5247, "luxury</w>": 5248, "proof</w>": 5249, "met": 5250, "wildlife</w>": 5251, "moments</w>": 5252, "rather</w>": 5253, "corner</w>": 5254, "compe": 5255, "canadian</w>": 5256, "likely</w>": 5257, "therapy</w>": 5258, "liam": 5259, "economic</w>": 5260, "indie": 5261, "route</w>": 5262, "fight": 5263, "hope": 5264, "setting</w>": 5265, "antly</w>": 5266, "cross": 5267, "fantasy</w>": 5268, "dee": 5269, "sketch</w>": 5270, "compli": 5271, "ymi</w>": 5272, "rules</w>": 5273, "engineering</w>": 5274, "figure</w>": 5275, "row": 5276, ".,</w>": 5277, "fw</w>": 5278, "sydney</w>": 5279, "wou": 5280, "tation</w>": 5281, "drew</w>": 5282, "uses</w>": 5283, "there": 5284, "spread</w>": 5285, "structure</w>": 5286, "patrick</w>": 5287, "apparently</w>": 5288, "ros": 5289, "hills</w>": 5290, "wwe</w>": 5291, "anny</w>": 5292, "commission</w>": 5293, "div": 5294, "fying</w>": 5295, "consul": 5296, "analysis</w>": 5297, "exi": 5298, "tennis</w>": 5299, "vehicle</w>": 5300, "\u00f0\u0141\u013a\u0143\u00f0\u0141\u013a\u0143": 5301, "ass</w>": 5302, "highly</w>": 5303, "opened</w>": 5304, "bann": 5305, "\u00f0\u0141\u0134\u013b": 5306, "mph</w>": 5307, "wishing</w>": 5308, "vor</w>": 5309, "fif": 5310, "giveaway</w>": 5311, "rr": 5312, "ray": 5313, "jess": 5314, "gat": 5315, "icymi</w>": 5316, "xit</w>": 5317, "highest</w>": 5318, "york": 5319, "pie</w>": 5320, "involved</w>": 5321, "higher</w>": 5322, "rie</w>": 5323, "malay": 5324, "intelli": 5325, "despite</w>": 5326, "chee": 5327, "sarah</w>": 5328, "bean</w>": 5329, "recogni": 5330, "arsen": 5331, "talented</w>": 5332, "passion</w>": 5333, "ich": 5334, "abc</w>": 5335, "leads</w>": 5336, "disease</w>": 5337, "vis</w>": 5338, "sec</w>": 5339, "presenting</w>": 5340, "milli": 5341, "hole</w>": 5342, "shots</w>": 5343, "depart": 5344, "surgery</w>": 5345, "govt</w>": 5346, "bin</w>": 5347, "dual</w>": 5348, "evi": 5349, "longer</w>": 5350, "evol": 5351, "screen": 5352, "portrait</w>": 5353, "etc</w>": 5354, "lose</w>": 5355, "chat": 5356, "pen</w>": 5357, "pi</w>": 5358, "oma</w>": 5359, "sick</w>": 5360, "erc": 5361, "companies</w>": 5362, "entry</w>": 5363, "plane</w>": 5364, "gry</w>": 5365, "vene": 5366, "liverpool</w>": 5367, "premiere</w>": 5368, "shared</w>": 5369, "ared</w>": 5370, "films</w>": 5371, "ira</w>": 5372, "holidays</w>": 5373, "cricket</w>": 5374, "ician</w>": 5375, "ving": 5376, ".)</w>": 5377, "ultimate</w>": 5378, "division</w>": 5379, "conduc": 5380, "sept</w>": 5381, "forces</w>": 5382, "mont</w>": 5383, "smart": 5384, "disapp": 5385, "sunshine</w>": 5386, "ind": 5387, "bless</w>": 5388, "made": 5389, "colors</w>": 5390, "frank": 5391, "iron</w>": 5392, "bottle</w>": 5393, "sgo": 5394, "mood</w>": 5395, "jason</w>": 5396, "eric</w>": 5397, "birth</w>": 5398, "teen": 5399, "response</w>": 5400, "target</w>": 5401, "statement</w>": 5402, "fear</w>": 5403, "thel": 5404, "alum": 5405, "arab": 5406, "blin</w>": 5407, "direction</w>": 5408, "steps</w>": 5409, "erial</w>": 5410, "worked</w>": 5411, "atl": 5412, "\u00f0\u0141\u0134\u0137": 5413, "felt</w>": 5414, "poli</w>": 5415, "scenes</w>": 5416, "homes</w>": 5417, "bell": 5418, "eat": 5419, "ateful</w>": 5420, "tin</w>": 5421, "lace</w>": 5422, "folks</w>": 5423, "pse</w>": 5424, "ann</w>": 5425, "wisdom</w>": 5426, "fav</w>": 5427, "butter": 5428, "sr</w>": 5429, "areas</w>": 5430, "smoo": 5431, "biz</w>": 5432, "dges</w>": 5433, "appo": 5434, "more": 5435, "them": 5436, "effect</w>": 5437, "windows</w>": 5438, "sunny</w>": 5439, "capital</w>": 5440, "totally</w>": 5441, "cities</w>": 5442, "grant</w>": 5443, "mbers</w>": 5444, "slow</w>": 5445, "autu": 5446, "ilities</w>": 5447, "wro": 5448, "rising</w>": 5449, "stics</w>": 5450, "violence</w>": 5451, "igh</w>": 5452, "quot": 5453, "hit": 5454, "tc</w>": 5455, "heritage</w>": 5456, "buff": 5457, "nes": 5458, "zar": 5459, "dential</w>": 5460, "exac": 5461, "edge</w>": 5462, "deep": 5463, "arena</w>": 5464, "became</w>": 5465, "benefits</w>": 5466, "marks</w>": 5467, "mber": 5468, "az</w>": 5469, "ames</w>": 5470, "preci": 5471, "dragon</w>": 5472, "reg": 5473, "dings</w>": 5474, "dos</w>": 5475, "\u00f0\u0141\u0134\u00aa": 5476, "nel": 5477, "sity</w>": 5478, "meal</w>": 5479, "dist": 5480, "legend": 5481, "purchase</w>": 5482, "pical</w>": 5483, "stick": 5484, "fat</w>": 5485, "duba": 5486, "profess": 5487, "carto": 5488, "prof</w>": 5489, "countries</w>": 5490, "responsi": 5491, "sequ": 5492, "fab</w>": 5493, "tribute</w>": 5494, "honored</w>": 5495, "practic": 5496, "purple</w>": 5497, "anton": 5498, "pared</w>": 5499, "tough</w>": 5500, "summer": 5501, "environment</w>": 5502, "sons</w>": 5503, "\u00f0\u0141\u013b\u0131</w>": 5504, "mps</w>": 5505, "gies</w>": 5506, "heroes</w>": 5507, "telling</w>": 5508, "henry</w>": 5509, "fen": 5510, "knowledge</w>": 5511, "<|startoftext|>": 262624, "<|endoftext|>": 262625}