#version: 0.2
"bpe_simple_vocab_16e6.txt#version: 0.2
i n
t h
a n
r e
a r
e r
th e</w>
in g</w>
o u
o n
s t
o r
e n
o n</w>
a l
a t
e r</w>
i t
i n</w>
t o</w>
r o
i s</w>
l e
i c
a t</w>
an d</w>
e d</w>
o f</w>
c h
o r</w>
e s</w>
i l
e l
s t</w>
a c
o m
a m
l o
a n</w>
a y</w>
s h
r i
l i
t i
f or</w>
n e
ð Ł
r a
h a
d e
o l
v e</w>
s i
u r
a l</w>
s e
' s</w>
u n
d i
b e
l a
w h
o o
d ay</w>
e n</w>
m a
n o
l e</w>
t o
ou r</w>
i r
g h
w it
i t</w>
y o
a s
s p
th is</w>
t s</w>
at i
yo u</w>
wit h</w>
a d
i s
a b
l y</w>
w e
th e
t e
a s</w>
a g
v i
p p
s u
h o
m y</w>
. .
b u
c om
s e</w>
er s</w>
m e
m e</w>
al l</w>
c on
m o
k e</w>
g e
ou t</w>
en t</w>
c o
f e
v er
a r</w>
f ro
a u
p o
c e</w>
gh t</w>
ar e</w>
s s</w>
fro m</w>
c h</w>
t r
ou n
on e</w>
b y</w>
d o
t h</w>
w or
er e</w>
k e
p ro
f or
d s</w>
b o
t a
w e</w>
g o
h e
t er</w>
in g
d e</w>
b e</w>
ati on</w>
m or
a y
e x
il l</w>
p e
k s</w>
s c
l u
f u
q u
v er</w>
ðŁ ĺ
j u
m u
at e</w>
an d
v e
k ing</w>
m ar
o p
h i
.. .</w>
p re
a d</w>
r u
th at</w>
j o
o f
c e
ne w</w>
a m</w>
a p
g re
s s
d u
no w</w>
y e
t ing</w>
y our</w>
it y</w>
n i
c i
p ar
g u
f i
a f
p er
t er
u p</w>
s o</w>
g i
on s</w>
g r
g e</w>
b r
p l
' t</w>
m i
in e</w>
we e
b i
u s</w>
sh o
ha ve</w>
to day</w>
a v
m an
en t
ac k</w>
ur e</w>
ou r
â Ģ
c u
l d</w>
lo o
i m
ic e</w>
s om
f in
re d</w>
re n
oo d</w>
w as</w>
ti on</w>
p i
i r</w>
th er</w>
t y</w>
p h
ar d</w>
e c
! !</w>
m on
mor e</w>
w ill</w>
t ra
c an</w>
c ol
p u
t e</w>
w n</w>
m b
s o
it i
ju st</w>
n ing</w>
h ere</w>
t u
p a
p r
bu t</w>
wh at</w>
al ly</w>
f ir
m in
c a
an t</w>
s a
t ed</w>
e v
m ent</w>
f a
ge t</w>
am e</w>
ab out</w>
g ra
no t</w>
ha pp
ay s</w>
m an</w>
h is</w>
ti me</w>
li ke</w>
g h</w>
ha s</w>
th an
lo ve</w>
ar t</w>
st e
d ing</w>
h e</w>
c re
w s</w>
w at
d er</w>
it e</w>
s er
ac e</w>
ag e</w>
en d</w>
st r
a w
st or
r e</w>
c ar
el l</w>
al l
p s</w>
f ri
p ho
p or
d o</w>
a k
w i
f re
wh o</w>
sh i
b oo
s on</w>
el l
wh en</w>
il l
ho w</w>
gre at</w>
w in
e l</w>
b l
s si
al i
som e</w>
ðŁ Ĵ
t on
d er
le s</w>
p la
ï ¸
e d
s ch
h u
on g</w>
d on</w>
k i
s h</w>
an n
c or
. .</w>
oun d</w>
a z
in e
ar y</w>
fu l</w>
st u
ou ld</w>
st i
g o</w>
se e</w>
ab le</w>
ar s</w>
l l</w>
m is
b er
c k</w>
w a
en ts</w>
n o</w>
si g
f e</w>
fir st</w>
e t</w>
sp e
ac k
i f</w>
ou s</w>
' m</w>
st er</w>
a pp
an g
an ce</w>
an s</w>
g ood</w>
b re
e ver
the y</w>
t ic
com e</w>
of f
b ack</w>
as e</w>
ing s</w>
ol d</w>
i ght</w>
f o
h er</w>
happ y</w>
p ic
it s</w>
v ing</w>
u s
m at
h om
d y</w>
e m
s k
y ing</w>
the ir</w>
le d</w>
r y</w>
u l
h ar
c k
t on</w>
on al</w>
h el
r ic
b ir
vi e
w ay</w>
t ri
d a
p le
b ro
st o
oo l</w>
ni ght</w>
tr u
b a
re ad
re s</w>
ye ar</w>
f r
t or
al s</w>
c oun
c la
t ure</w>
v el
at ed</w>
le c
en d
th ing</w>
v o
ic i
be st</w>
c an
wor k</w>
la st</w>
af ter</w>
en ce</w>
p ri
p e</w>
e s
i l</w>
âĢ ¦</w>
d re
y s</w>
o ver</w>
i es</w>
ðŁ ĳ
com m
t w
in k</w>
s un
c l
li fe</w>
t t
a ch
l and</w>
s y
t re
t al
p ol
s m
du c
s al
f t</w>
' re</w>
ch e
w ar
t ur
ati ons</w>
ac h</w>
m s</w>
il e</w>
p m</w>
ou gh</w>
at e
st ar
wee k</w>
! !!</w>
c lu
th ere</w>
n er</w>
t om
s el
ï¸ ı</w>
wor ld</w>
v es</w>
c am
go t</w>
in ter
of f</w>
u m</w>
ton ight</w>
o ther</w>
h ou
loo k</w>
j e
i d</w>
si on</w>
be au
at t
el i
or t</w>
re c
f f
st er
su pp
g en
be en</w>
il y</w>
te am</w>
m m
i c</w>
pe op
it t
at s</w>
on ly</w>
mb er</w>
en g
b ri
m p
k now</w>
b ur
b ar
in s</w>
lo w</w>
sh e</w>
ro w</w>
â Ŀ
t ro
peop le</w>
vi a</w>
lo w
ag a
be t
x t</w>
f ac
ch ar
e ar
w al
s en
f am
b le</w>
n ati
is h</w>
n or
g ame</w>
li ve</w>
s co
le y</w>
d on
ic k</w>
b all</w>
ver y</w>
the se</w>
p an
i a</w>
at ing</w>
c r
a re
g ir
ma ke</w>
st re
sho w</w>
. "</w>
f l
u p
d r
than ks</w>
il li
w om
st s</w>
i g
s ur
ever y
c ur
vie w</w>
le t</w>
in to</w>
mo st</w>
n a
in di
g ar
ha d</w>
s ou
v ed</w>
an t
iti on</w>
ma de</w>
f ol
un i
it ed</w>
ðŁ ı
ic al</w>
th r
read y</w>
ch ec
d ra
k es</w>
boo k</w>
e p</w>
si c</w>
mor ning</w>
ne ws</w>
c au
c t</w>
w ell</w>
an c
pho to</w>
th an</w>
or s</w>
bir th
g g
ou t
ne xt</w>
som e
en ing</w>
stor y</w>
ch ri
do wn</w>
hom e</w>
f fe
fre e</w>
d a</w>
b or
f il
ci al</w>
than k</w>
si de</w>
le ar
qu e
l ine</w>
t en
at es</w>
ye ars</w>
m y
pho to
beau ti
ri ght</w>
n u
for m
shi p</w>
b an
th er
d ays</w>
g am
as on</w>
g y</w>
ðŁ İ
birth day</w>
se t</w>
ic k
e t
st ill</w>
com ing</w>
ta ke</w>
ðŁ ĩ
b b
s ol
s on
d en
e p
mu sic</w>
the m</w>
de n</w>
wh y</w>
f oo
c ra
am az
w n
h ol
t ting</w>
w r
u e</w>
ma g
c ro
l an
c lo
b ra
a k</w>
s ing</w>
c al
re ad</w>
' ve</w>
jo h
b ab
d ri
b lo
bi g</w>
er ic
in t</w>
t or</w>
tr y</w>
l a</w>
le g
hou se</w>
m ic
v al
beauti ful</w>
l itt
chec k</w>
ne w
ver s
s w
ar i
pla y
h er
âĢ ĵ</w>
w in</w>
m a</w>
con gr
sch ool</w>
f un
. @</w>
he al
ic h</w>
d el
wh ere</w>
l on
ke t</w>
tw o</w>
mu ch</w>
wat ch</w>
v en
d ed</w>
a st</w>
k ed</w>
b as
go ing</w>
m p</w>
e ver</w>
w ays</w>
ro o
de sig
l y
s ed</w>
to p</w>
l in
ch an
to o</w>
it ing</w>
d ent</w>
gh ts</w>
t y
sp o
ne ed</w>
b lu
in st
be ing</w>
âĿ ¤
w el
l s</w>
hi m</w>
m ay</w>
st ing</w>
n a</w>
el y</w>
litt le</w>
g a
n at
tom or
m c
h on
w ant</w>
a ir
pi c</w>
am eric
p er</w>
le ss</w>
wee k
ve l</w>
a h</w>
c ap
ch am
g er
ti m
tomor row</w>
ne ss</w>
st ate</w>
h al
ser v
z e</w>
o s</w>
p at
v is
ex c
s in
f f</w>
c ity</w>
c en
an y
b el
su mm
t in
w ould</w>
loo king</w>
k o
ce le
fam ily</w>
m er
po w
hel p</w>
bu s
c o</w>
c le
sel f</w>
en s</w>
ic s</w>
th o
an i
ch o
le ad
b s</w>
t wee
th ink</w>
for e</w>
ch il
vi de
di d</w>
al e</w>
ch i
v il
en ds</w>
w ing</w>
p as
' ll</w>
v ol
s a</w>
g s</w>
man y</w>
j ec
be fore</w>
gra ph
n y</w>
ur ing</w>
w il
d d
bu il
f av
st ed</w>
tr an
l ing</w>
ou d</w>
d ge</w>
fi el
nati onal</w>
st a
c er
w ere</w>
in a</w>
se ason</w>
c ou
n ed</w>
amaz ing</w>
ti ons</w>
cele br
n s</w>
a th
he ad</w>
s day</w>
d ar
lo c
v in
an other</w>
g oo
s at
n y
jo in</w>
pre s
s es</w>
s ing
an a</w>
in ing</w>
.. ..</w>
c our
ï¸ ı
ac t</w>
cau se</w>
li ght</w>
am s</w>
t a</w>
b al
f c</w>
hi gh</w>
off ici
t t</w>
chri st
d ic
d ay
ra l</w>
h or
: )</w>
vi si
n am
o b
ma s</w>
gh t
re ally</w>
t un
fin d</w>
thr ough</w>
por t</w>
u t
ti ve</w>
st y
n e</w>
or e</w>
ðŁĺ Ĥ
supp ort</w>
ne ver</w>
ev en</w>
ðŁ Ķ
h a</w>
y a</w>
l d
u k</w>
r an
j am
wi th
me di
d es</w>
ne y</w>
ch ing</w>
al e
h y
k in
! !
d y
pl ace</w>
al so</w>
b le
wh ich</w>
bl ack</w>
b li
s ay</w>
par k</w>
pl ay</w>
ir e</w>
vide o</w>
week end</w>
a il
ke y</w>
p t</w>
w ard</w>
fri day</w>
d in
ine ss</w>
g ro
b en
al ways</w>
t ball</w>
ag o</w>
m il
c y
pro duc
di sc
un der
ple ase</w>
sp or
fu ll</w>
e y</w>
ðŁ Ļ
is e</w>
iti es</w>
c at
k no
u se</w>
fo re
k er</w>
ar t
hi gh
op en</w>
s an
e f
our s</w>
sh ed</w>
st ri
d ro
aga in</w>
i m</w>
ðŁ ĵ
en jo
fu n</w>
ge tting</w>
p en
g er</w>
c li
an y</w>
ever y</w>
e u
wom en</w>
â ľ
e st</w>
c ould</w>
r y
" @</w>
th ou
sh a
comm un
b er</w>
d ents</w>
di s
wh ile</w>
aw ay</w>
di o</w>
h am
g la
d ate</w>
k a</w>
mis s</w>
un ch</w>
w on
in f
roo m</w>
g a</w>
re al</w>
ex per
di rec
sh ould</w>
sp r
g ol
l ong</w>
bet ter</w>
or i
e y
i ence</w>
il s</w>
z z
h an
f ound</w>
v s</w>
â Ļ
po st</w>
ti c</w>
par t</w>
m en
ren ce</w>
ce ss</w>
v ic
s il
sho p</w>
ðŁĺ Ĥ</w>
f ood</w>
v al</w>
sti c</w>
y ou
s ays</w>
e lec
st ar</w>
o c
l and
i d
c tion</w>
fiel d</w>
s of
st art</w>
wat er</w>
fri ends</w>
on es</w>
ðŁ Į
f la
f ar
wh ite</w>
par ty</w>
in st</w>
gr ou
t v</w>
every one</w>
m ent
j a
ch a
pr in
an ts</w>
d uring</w>
l at
l ar
we st</w>
th en</w>
k a
y oun
in sp
in te
we en</w>
visi t</w>
aga inst</w>
re le
he ad
c es</w>
to wn</w>
loo ks</w>
th re
re gi
ren t</w>
pro jec
gir l</w>
se ar
w o
m om
c ar</w>
h un
pu bli
d i</w>
p le</w>
c all</w>
c ri
u m
for d</w>
per fe
fri end</w>
h ard</w>
ssi on</w>
te st</w>
pla ying</w>
ar ound</w>
be cause</w>
ke ts</w>
me et</w>
sat ur
ar ti
wor k
j un
v en</w>
r un
me mber</w>
por t
su per
t wit
s am
el s</w>
t ly</w>
ad v
ati ve</w>
at h</w>
s ure</w>
av ail
la r</w>
s qu
ar ds</w>
ev ent</w>
m en</w>
l l
o ver
lo gy</w>
it al</w>
tim es</w>
m al
b ack
c oo
ma king</w>
st ru
â ģ
it u
sh ar
g an</w>
c as
s n
summ er</w>
pic ture</w>
f an
h in
christ mas</w>
c y</w>
pr oud</w>
cham pi
desig n</w>
pp ing</w>
ho pe</w>
c a</w>
avail able</w>
ma y
we d
photo graph
spe cial</w>
sal e</w>
sto p</w>
er y</w>
a we
al ity</w>
hi story</w>
am a</w>
pre si
b ru
wor king</w>
d one</w>
d r</w>
k en</w>
fe at
w ood</w>
ate st</w>
sun day</w>
mo vi
vel y</w>
s le
f ace</w>
sp ec
stu dents</w>
b y
ha m</w>
sp on
bus iness</w>
d at
i e</w>
i p
so ci
g lo
h and
re cor
r s</w>
me e
ke ep</w>
p ur
heal th</w>
sh e
com ple
go d</w>
da vi
col lec
li st
r a</w>
clu b</w>
t ers</w>
in clu
th ings</w>
pl an
â ĺ
joh n</w>
sh ing</w>
at ul
so on</w>
blu e</w>
g or
satur day</w>
w on</w>
congr atul
se e
âĿ¤ ï¸ı</w>
tho se</w>
ðŁĺ į</w>
fin al</w>
d ou
it h</w>
o wn</w>
ro ad</w>
t our</w>
a st
indi a</w>
ti l</w>
n d</w>
f er
fav or
su l
lear n</w>
fir e</w>
ju st
grou p</w>
a h
r ac
bo dy</w>
u r</w>
c are</w>
à ¸
p lo
o h</w>
po s
gi ve</w>
te ch
su b
c ent
er ing</w>
y m
il ity</w>
f ic
lon don</w>
v ir
gu ys</w>
b a</w>
ðŁ ¤
bab y</w>
sc re
ðŁĺ į
tru mp</w>
un der</w>
chan ge</w>
i an</w>
col le
ss es</w>
l er</w>
ss ed</w>
n ice</w>
ann oun
pow er</w>
s ar
a king</w>
min i
s li
s wee
k ar
fu l
c ru
ac tion</w>
a ther</w>
) .</w>
st and
de vel
a a
g an
le ft</w>
lo l</w>
re l
tran s
m ents</w>
in t
e f</w>
man ag
di g
gen er
do wn
p au
ti v
k u
th ur
k en
st on</w>
f ans</w>
tal k</w>
twee t</w>
t oo
sty le</w>
pro te
se con
fr on
awe some</w>
g l
p al
ne t
s or
la u
g on
sin ce</w>
t ty</w>
ser ies</w>
me mor
b eli
fil m</w>
di d
di es</w>
o t
congratul ations</w>
p ra
e ve</w>
w oo
offici al</w>
su c
in cre
b on
par t
pp ed</w>
cla ss</w>
si ve</w>
bo y</w>
cu l
perfe ct</w>
t ou
d am
wel come</w>
foo tball</w>
h i</w>
p ap
wa it</w>
ad a</w>
congr ats</w>
youn g</w>
exc ited</w>
re ce
j an
v a</w>
re d
st ra
medi a</w>
' d</w>
do es</w>
le t
mu l
ill s</w>
gre en</w>
m el
to ge
fu ture</w>
ye ster
vers ity</w>
for m</w>
ta in</w>
i de
ch es</w>
ki ds</w>
qu i
ha ha
de ta
bi g
favor ite</w>
gir ls</w>
con tin
do m</w>
sear ch</w>
u al</w>
a ir</w>
d ers</w>
mon th</w>
c er</w>
yester day</w>
commun ity</w>
ad e</w>
do g</w>
vil le</w>
ic es</w>
d eli
sy ste
ru n</w>
is m</w>
he art</w>
c up</w>
en ti
fe w</w>
presi dent</w>
e ds</w>
un til</w>
fe sti
o k
f lo
sa id</w>
ol e</w>
me d
tra vel</w>
Â £</w>
ph one</w>
toge ther</w>
fa st</w>
lo t</w>
gam es</w>
sh ir
bet ween</w>
y es</w>
th ers</w>
do ing</w>
m ac
at or</w>
b and</w>
fol low
projec t</w>
devel op
di ffe
con fe
spe ci
ca st</w>
y s
bo ard</w>
r d</w>
i al</w>
sh oo
r am
ha ving</w>
sh are</w>
fol low</w>
on e
n ame</w>
m r</w>
pu t</w>
disc u
or y</w>
c ame</w>
ou s
s ite</w>
twit ter</w>
t b
t it
fin ally</w>
z ed</w>
su per</w>
com pan
us ing</w>
all s</w>
li st</w>
r is</w>
sho t</w>
g al
t ar
de l</w>
joh n
âĢ Ķ</w>
some thing</w>
ra m</w>
inte re
wh e
b it</w>
ðŁ į
stre et</w>
oun d
a i
tic kets</w>
movi e</w>
re al
k y
ta king</w>
o pp
c c</w>
l am
m oun
in ve
bl ack
us ed</w>
on line</w>
y or
loc al</w>
gu e
c ks</w>
o w
ge st</w>
bo ys</w>
illi on</w>
con t
re ci
in ed</w>
eu ro
no w
se en</w>
p h</w>
te ach
de f
sou th</w>
su ch</w>
aw ard</w>
mu st</w>
is su
ca re
fe el</w>
p lu
l atest</w>
spor ts</w>
we b
te x
e ment</w>
s k</w>
fi c</w>
w an
te ch</w>
o t</w>
bo x</w>
n er
fre e
t al</w>
a sh
c ase</w>
ho t</w>
won der
mee ting</w>
er a</w>
ch all
ðŁ Ĳ
jo b</w>
il i
c ool</w>
j our
th s</w>
m o</w>
f el
di e</w>
mic ha
e le
te am
serv ice</w>
st and</w>
ma kes</w>
p ing</w>
ear ly</w>
com es</w>
e k</w>
ho li
v ers</w>
ag ue</w>
s au
thre e</w>
mon day</w>
fa shi
some one</w>
th ro
se a</w>
b ad</w>
supp or
tur n</w>
ur y</w>
m ing</w>
photograph y</w>
n ic
mar k</w>
pre tty</w>
ss ing</w>
wat ching</w>
me mb
ar ri
coun ty</w>
be ach</w>
fr an
cen ter</w>
pol ice</w>
b at
publi c</w>
t an
pre ss</w>
s af
s y</w>
ge ts</w>
ro y
n ers</w>
y our
bu y</w>
st ers</w>
sho w
as ed</w>
chil dre
af ric
in es</w>
sp ace</w>
sc ri
h all</w>
pa in
ar ing</w>
hom e
m ur
heal th
ch ed</w>
s and
rece i
gu y</w>
e a
americ an</w>
re si
childre n</w>
- -
i ri
ing ton</w>
coun try</w>
ro ss</w>
le n</w>
ann a</w>
boo ks</w>
b c</w>
e ce</w>
d om
lo vely</w>
k h
pe t
g y
g ri
st age</w>
off ice</w>
ro ck</w>
m on</w>
b ay</w>
t able</w>
su n</w>
m ed</w>
th in
l or
f low
( @</w>
uni versity</w>
stor e</w>
fron t</w>
goo d
z a</w>
vo te</w>
nor th</w>
he y</w>
an im
or der</w>
mi d
with out</w>
a de
re member</w>
mar ket</w>
? ?</w>
mu s
tra ining</w>
e duc
bu t
co ver</w>
st an
sc en
b la
bre ak
l ou
s ame</w>
g old</w>
a in</w>
o s
bo th</w>
l it
ver n
a i</w>
al bu
p a</w>
enjo y</w>
be g
ell ing</w>
thur sday</w>
inf o</w>
s an</w>
americ a</w>
ha ir</w>
te l</w>
mar ch</w>
con cer
colle ge</w>
confe rence</w>
ap p</w>
h our</w>
ch ang
â ļ
s our
ol s</w>
we ather</w>
w ar</w>
p hi
festi val</w>
secon d</w>
cu te</w>
pr ac
en er
str y</w>
le a
pol it
s av
se n</w>
o w</w>
m i</w>
ne ar</w>
ou ght</w>
z e
co ffe
w illi
d an
se y</w>
davi d</w>
e se</w>
f an</w>
de ci
the at
no v
ati on
tr ac
sc i
re view</w>
c el
e m</w>
u n</w>
ju ly</w>
or ig
ti on
d ru
form er</w>
st ay</w>
af ter
in v
too k</w>
dat a</w>
b al</w>
tu es
d an</w>
ev ening</w>
ðŁĺĤ ðŁĺĤ
d ol
u res</w>
pro vi
t s
e st
sig n</w>
j ac
u k
s ong</w>
ye t</w>
bo w
in du
j ap
h oo
po int</w>
any one</w>
z y</w>
i st</w>
h ur
it al
buil ding</w>
wom an</w>
ch ur
j er
per for
co ach</w>
le ague</w>
ce ss
ne t</w>
i mag
nati on
br it
qu e</w>
aw ards</w>
ag es</w>
wor ks</w>
c ed</w>
man ce</w>
l ate</w>
ig n</w>
mon ey</w>
tru e</w>
i i</w>
t ell</w>
pl ac
p ac
as y</w>
wor ld
be hin
im port
read ing</w>
gra m</w>
gi ving</w>
me t</w>
h it</w>
for ward</w>
st om
pres ent
jun e</w>
so cial</w>
no on</w>
mar t
hal f</w>
s we
go vern
k er
deta ils</w>
li sh</w>
_ _
ac y</w>
si a</w>
ber t</w>
f all</w>
! !!!</w>
) ,</w>
th i
d iti
sp ort</w>
k ing
f it
st af
c at</w>
mu se
cen tr
y er</w>
con tro
b loo
wal k</w>
ac tu
did n</w>
li m
lear ning</w>
re search</w>
wed ne
au th
h ours</w>
k y</w>
f ar</w>
h en
.. ..
it ch
ri l</w>
str ong</w>
sk y</w>
que sti
jam es</w>
r on
d g
f ur
c in
do es
app ro
mar ke
tu res</w>
ful ly</w>
ch at</w>
behin d</w>
te m
fin i
mis sion</w>
b att
fe el
he av
every thing</w>
b ar</w>
w ish</w>
pre mi
i ma
exper ience</w>
e ach</w>
re port</w>
swee t</w>
tic s</w>
spr ing</w>
re spon
syste m</w>
vic tor
l in</w>
sa w</w>
al ready</w>
gh ter</w>
f le
ã ĥ
br ing</w>
albu m</w>
- -</w>
ell s</w>
st an</w>
to m</w>
inter national</w>
w ent</w>
an ni
mat ch</w>
pp er</w>
st one</w>
sm all</w>
ra in</w>
fashi on</w>
are a</w>
v an
ag ram</w>
k o</w>
thou ght</w>
wor th</w>
v an</w>
m er</w>
coffe e</w>
it es</w>
g n
arti st</w>
c on</w>
ar ch
c ir
se cre
gr ound</w>
is o
h and</w>
co m</w>
bri dge</w>
h s</w>
x i
l ink</w>
pu l
sp l
r ace</w>
f li
ri ver</w>
g as</w>
di sco
d al
play er</w>
f it</w>
photo s</w>
it y
o k</w>
j or
tr a</w>
ap ril</w>
ad s</w>
a di
sol u
beau ty</w>
do or</w>
me ss
up date</w>
ali a</w>
sch o
en ed</w>
mom ent</w>
sco t
sc ience</w>
i or</w>
ti es</w>
ac ross</w>
ous ly</w>
sh es</w>
does n</w>
p age</w>
wat er
m illion</w>
cla ssi
l ic
ca st
form ation</w>
micha el</w>
ell o</w>
s mo
in ts</w>
vi sion</w>
op ening</w>
ld n</w>
au str
tues day</w>
win ner</w>
po ssi
r ound</w>
shir t</w>
di t</w>
b o</w>
u es</w>
il led</w>
al ong</w>
tri p</w>
star ting</w>
im pro
k an
per son</w>
no t
re co
ne eds</w>
c le</w>
li e</w>
re st</w>
r ing</w>
win ter</w>
si mp
mo m</w>
be er</w>
fac e
tor s</w>
us a</w>
collec tion</w>
ge or
se ssion</w>
tr ying</w>
la s</w>
la ke</w>
j en
orig in
stu dent</w>
se cur
v in</w>
pic s</w>
ex pe
com p
gon na</w>
e qu
b ad
le y
a u</w>
memb ers</w>
bre ak</w>
w all</w>
gi c</w>
din ner</w>
bu l
insp ir
r i</w>
min d</w>
ic a</w>
win ning</w>
tal king</w>
t ren
s is</w>
t en</w>
wonder ful</w>
s now</w>
he ar</w>
th om
no thing</w>
gu i
st in
blo g</w>
fe st</w>
b un
le e</w>
war ds</w>
ch ance</w>
dre ss</w>
re n</w>
pau l</w>
p es</w>
tech no
ru ssi
c ard</w>
e ast</w>
mar i
w ine</w>
t i</w>
la w</w>
str ic
k i</w>
ap e</w>
au gu
pro fe
as h</w>
cour se</w>
ma il</w>
ren tly</w>
d un
m un
lo ve
is land</w>
dri ve</w>
s l
end ed</w>
ma in</w>
lo st</w>
nat ure</w>
âĿ¤ ï¸ı
ch ic
re por
p in
pr o</w>
st ation</w>
ce p
ta kes</w>
compan y</w>
go es</w>
on d</w>
ma ch
ra dio</w>
d ad</w>
ro ck
j a</w>
p ay
champi on
e e
in de
tt a</w>
ati c</w>
t ab
beli eve</w>
ener gy</w>
z i
t at
wor d</w>
on ce</w>
re sul
y l
and re
an o</w>
inst agram</w>
clo se</w>
t am
cu stom
w a</w>
con om
sho ws</w>
li fe
k in</w>
ro b
t age</w>
n ation</w>
al most</w>
list en</w>
sa ve</w>
re li
ac e
mar y</w>
tre e</w>
for get</w>
j ack
wa iting</w>
direc tor</w>
h ill</w>
bor n</w>
te mp
f l</w>
st e</w>
on a</w>
sing le</w>
wedne sday</w>
un ited</w>
in o</w>
@ _</w>
ne l</w>
celebr ate</w>
en ding</w>
de al</w>
j i</w>
can ada</w>
hu ge</w>
tr ack</w>
âĢ ¢</w>
f y</w>
fan ta
an g</w>
yor k</w>
rele ase</w>
p un
ep iso
wor ds</w>
t our
p ack
i gh
classi c</w>
perfor mance</w>
ke t
after noon</w>
recor d</w>
win s</w>
pro ble
âĿ ¤</w>
f our</w>
b ed</w>
ban k</w>
d ance</w>
s la
cal led</w>
mi ght</w>
a p</w>
pa st</w>
ðŁ ļ
diffe rent</w>
it e
gi ft</w>
ssi ve</w>
chur ch</w>
c us</w>
pro gram</w>
ho tel</w>
ic e
ma d
secur ity</w>
en ge</w>
d c</w>
en ough</w>
st a</w>
e ty</w>
de ad</w>
g un
he ar
m ir
hu man</w>
gre ss</w>
oun ds</w>
pi ece</w>
bre aking</w>
gar den</w>
fi ght</w>
vie ws</w>
f ish</w>
star ted</w>
run ning</w>
gre en
ser i
s m</w>
as k</w>
d or
de ath</w>
e conom
er i
ir d</w>
s er</w>
l unch</w>
âģ ¦
bo x
nat u
ba se
b an</w>
f al
glo bal</w>
wil d
wo w</w>
out side</w>
mo ve</w>
le ad</w>
an al
muse um</w>
on g
ha w
pow er
than k
b ac
char ac
cam pa
dig ital</w>
r o</w>
op er
de v
w ol
p ati
f a</w>
m ale</w>
pap er</w>
ill ing</w>
c s</w>
â ĥ
educ ation</w>
ta ken</w>
e ffe
m ou
s ad
" .</w>
bas ed</w>
staf f</w>
inclu ding</w>
li ving</w>
a c</w>
ch ina</w>
mo b
stor m</w>
lu ck</w>
ph il
o o</w>
y n
tra vel
k el
ti al</w>
pr ice</w>
boo k
import ant</w>
bi o
p ool</w>
ny c</w>
f ab
lo ad</w>
? !</w>
chall enge</w>
cr y
ser ve</w>
we ar</w>
bu s</w>
ta in
nu mber</w>
ro r</w>
k at
i z
th ough</w>
ho sp
m m</w>
fa ir</w>
ut es</w>
ho t
po p</w>
fi ed</w>
cam p
develop ment</w>
li br
c ali
em s</w>
âģ¦ @</w>
b ol
is ed</w>
stand ing</w>
mo del</w>
it a</w>
g le</w>
bro wn</w>
ima ge</w>
ve red</w>
for ce</w>
o il</w>
par tic
sh u
da ily</w>
la w
se c
cla ss
cam p</w>
holi day</w>
cl in
k ers</w>
pres ent</w>
gam e
incre di
er ship</w>
inter view</w>
b ill</w>
du e</w>
and y</w>
ab o
in nov
ke y
ac ade
p il
mo der
st ars</w>
br and</w>
f er</w>
wee ks</w>
con si
pr e</w>
sa fe
wr it
di um</w>
la unch</w>
marke ting</w>
ann ual</w>
as si
cour t</w>
la dy</w>
c ted</w>
and a</w>
in side</w>
chil d</w>
opp or
sm ith</w>
centr e</w>
gu e</w>
âģ ©</w>
f ren
st y</w>
for t</w>
ent ly</w>
is n</w>
ke ep
to ber</w>
on y</w>
bo y
al d</w>
col la
de mo
le vel</w>
com pet
ad o</w>
b our
fanta stic</w>
m ate</w>
s u</w>
sou th
oppor tun
vers ary</w>
lat er</w>
bu d
face book</w>
la un
ster n</w>
p it
! "</w>
ma j
gr am
tb t</w>
fi re
happ y
a ks</w>
wh ole</w>
actu ally</w>
ill er</w>
ell a</w>
lo ts</w>
al ex
an ge
lan ds</w>
ðŁĺ Ń
en ter
r ou
episo de</w>
p ed</w>
in ten
sh ire</w>
wh o
pl an</w>
h o</w>
ca ke</w>
we st
mag az
fre sh</w>
c c
n ar
ch ris</w>
wr iting</w>
w er</w>
n om
l o</w>
mi dd
dre am</w>
o l</w>
ti onal</w>
de b
> ></w>
be come</w>
s i</w>
gr and</w>
all ing</w>
hi stor
ri de</w>
i red</w>
saf e</w>
que en</w>
ci l</w>
in tro
vi l</w>
d ani
.. .
ar tic
st at
sh ort</w>
or ing</w>
sel fi
mis si
do c
b it
g all
b om
i re
se lec
d ition</w>
ðŁĶ ¥</w>
fri end
be at</w>
gh ting</w>
ðŁĺ Ĭ</w>
pe ace</w>
ex hi
ant a</w>
ab ility</w>
il lu
j on
qu ality</w>
tri bu
m es</w>
play ers</w>
fa ir
cu t</w>
c ab
suc cess</w>
b i</w>
su s</w>
pro mo
sch e
an ge</w>
ic o</w>
comm it
cat ch</w>
ill a</w>
kin d</w>
feel ing</w>
qu o
s ay
anni versary</w>
spo t</w>
mo ther</w>
an e</w>
p end
your self</w>
op s</w>
app le</w>
min utes</w>
p o</w>
gr and
ri es</w>
ha ha</w>
care er</w>
ed ition</w>
de c
ric k</w>
am i</w>
concer t</w>
iti ve</w>
ge ous</w>
d ly</w>
t te</w>
adv ent
i g</w>
li ghts</w>
ak er</w>
sk y
âĥ £</w>
r ay</w>
fini shed</w>
w ay
s d
ac coun
ðŁĴ ķ</w>
ck y</w>
ch el
lit er
pain ting</w>
lo s</w>
st un
techno logy</w>
n as
ma r</w>
b il
afric a</w>
ki e</w>
ey es</w>
gol f</w>
plu s</w>
ni a</w>
it ec
serv ices</w>
wed ding</w>
kno wn</w>
te le
.. ...</w>
star ts</w>
pa ren
w ants</w>
ati onal</w>
mon ths</w>
win do
fav our
er t</w>
magaz ine</w>
ex clu
re ve
b c
origin al</w>
e ss
n al</w>
an ti
st ro
t ice</w>
stu dy</w>
à ¤
v ac
nation al
fi ve</w>
ra in
ve ment</w>
u te</w>
ver se</w>
em er
ar my</w>
possi ble</w>
gue ss</w>
val ley</w>
ther n</w>
cro w
m r
col or</w>
on to</w>
pic k</w>
cle ar</w>
dar k</w>
t ac
wan ted</w>
it ting</w>
can cer</w>
govern ment</w>
di e
ri se</w>
z ing</w>
col d</w>
f oun
stu dio</w>
str ation</w>
bro ther</w>
a head</w>
sh el
mic ro
ic ally</w>
d au
sig ned</w>
vi ol
a x
as se
i o
w re
spl ay</w>
ch ick
augu st</w>
pl at
ti ps</w>
sp i
hu man
e asy</w>
lo gi
mi ke</w>
gro w
ag re
w w
sh ad
mo tiv
wi de</w>
tur ns</w>
om g</w>
v ar
de fin
su g
j im
ðŁĶ ¥
t d</w>
campa ign</w>
nam ed</w>
re tweet</w>
co p
t v
le av
k is
dou ble</w>
s mar
issu e</w>
vil la
in formation</w>
li es</w>
sto ck</w>
n t</w>
di stric
sh or
mi x
er o
se p
me x
see ing</w>
li ve
re min
co de</w>
g ur
s c</w>
wil d</w>
l un
h ood</w>
spo t
fa ther</w>
fore ver</w>
up d
tra f
f ly</w>
ne ed
gra du
tra in</w>
ma ke
s ab
be y
si ze</w>
lead er</w>
tal ks</w>
e u</w>
lo g
fo x</w>
gor geous</w>
le ss
le ts</w>
sur pri
my self</w>
no te</w>
li ves</w>
f ru
lo ved</w>
se ver
de m
j i
so c
h old</w>
do gs</w>
n i</w>
â ŀ
lea ve</w>
air port</w>
ben ef
ex pl
shi ps</w>
comple te</w>
ach i
gre at
vin tage</w>
j ack</w>
ro c
woo d
pri v
off er</w>
ey e</w>
ver sion</w>
te a</w>
co ach
off ic
w ell
g en</w>
s at</w>
h h
you th</w>
o x
? "</w>
m t</w>
mi x</w>
g g</w>
d le</w>
natu ral</w>
buil d</w>
break fast</w>
thin king</w>
theat re</w>
mo on</w>
ber g</w>
go als</w>
geor ge</w>
en e
exc ell
il ing</w>
tun e</w>
y ed</w>
g ate</w>
m it
net work</w>
jo e</w>
h ello</w>
f b</w>
tu be</w>
we aring</w>
ath le
stru c
har d
gla ss</w>
g ers</w>
thro w
g es</w>
b t
indu stry</w>
manag ement</w>
ali st</w>
go al</w>
stre am</w>
y el
a vi
ici ous</w>
o thers</w>
s ki
chri sti
bir d</w>
e sc
m in</w>
tr o</w>
l t</w>
j an</w>
im p
ri ghts</w>
sh a</w>
or gan
cent ral</w>
ar a</w>
ro ll</w>
favour ite</w>
che ster</w>
el se</w>
p ay</w>
car s</w>
m ine</w>
ste p</w>
prac tice</w>
maj or</w>
h ang
ðŁĺ ĺ</w>
n on</w>
v ari
eng ine
vol un
di a</w>
i led</w>
arch itec
p ink</w>
d s
th y</w>
wa sh
web site</w>
ba g</w>
contro l</w>
el li
f ra
an sw
d ence</w>
y u
r on</w>
ol a</w>
g in
dr in
li c</w>
cou ple</w>
sp ar
g on</w>
cre ate</w>
c t
celebr ating</w>
de ep</w>
e at</w>
te e</w>
vo ice</w>
dro p</w>
vis it
at ors</w>
sta dium</w>
f t
w is
ro l
gra de</w>
fam il
po ints</w>
re pre
w as
traf fic</w>
jap an</w>
or g
hon or</w>
tex as</w>
man u
âĻ ¥</w>
safe ty</w>
re r</w>
b ag
em plo
rele ased</w>
re gu
ak a</w>
n av
ro le</w>
sen ior</w>
spec t</w>
cro ss</w>
lin es</w>
be st
p ack</w>
s in</w>
ti e</w>
mis sing</w>
sun set</w>
li ber
is ing</w>
j ay
sk i</w>
champion ship</w>
ac tiv
la dies</w>
play ed</w>
y y
pu bl
al o
pri de</w>
s r
pa ki
lu x
sur vi
ck ed</w>
e ts</w>
cho col
austr alia</w>
par is</w>
mi les</w>
h at
ment al</w>
al a</w>
me an</w>
mob ile</w>
en a</w>
in si
f ound
chi ef</w>
t ag
incredi ble</w>
re turn</w>
Ã ©
goo gle</w>
fren ch</w>
cre w</w>
hal lo
ali an</w>
j az
ch er</w>
sil ver</w>
nor th
eng lish</w>
base ball</w>
c af
lim ited</w>
follow ing</w>
app reci
ear th</w>
k ir
ve mber</w>
w ed</w>
p tion</w>
g ed</w>
oc tober</w>
fl ori
c r</w>
en cy</w>
ga ve</w>
lor d</w>
stu ff</w>
ber ry</w>
po st
sm ile</w>
bro ad
st ate
gg er</w>
me ans</w>
ic y</w>
gu n</w>
y o</w>
ma ster</w>
bur g</w>
han ds</w>
ni e</w>
/ /</w>
uni on</w>
brit ish</w>
big gest</w>
distric t</w>
am ing</w>
h il
o ce
per son
pas s</w>
en vir
scho ols</w>
arri ved</w>
anc es</w>
insp ired</w>
ex pla
be n</w>
libr ary</w>
bo tt
am p
ste ph
cont act</w>
b ang
m s
cali for
t old</w>
batt le</w>
b b</w>
chic ago</w>
âľ ¨</w>
str ate
sh i</w>
de ce
- )</w>
ad d</w>
la b
j ones</w>
leg end</w>
cast le</w>
ing er</w>
st ance</w>
be l</w>
ur a</w>
re fu
lead ers</w>
po t
se x
h ic
artic le</w>
ki d</w>
fr ance</w>
x x</w>
ex e
gui de</w>
volun te
pr int</w>
al i</w>
ce o</w>
twee ts</w>
w x</w>
scen e</w>
vol u
ant i</w>
h an</w>
as soci
shar ing</w>
ro se</w>
mini ster</w>
sh er
in ste
cle an
demo cr
po ster</w>
sk in</w>
p sy
pro per
cra zy</w>
i am
o re
in i</w>
any thing</w>
po d
mo ving</w>
cl ick</w>
ex plo
com b
cra ft</w>
f i</w>
bloo d</w>
is ra
publ ic
d ent
ol ym
eng land</w>
a si
ch er
fac t</w>
envir on
har ry</w>
g one</w>
me dic
enjo ying</w>
just ice</w>
j r</w>
indi an</w>
wi fe</w>
s ound</w>
t es</w>
dra wing</w>
p al</w>
ide a</w>
cr it
ju li
il er</w>
war m</w>
cl ar
thou ghts</w>
def en
coun cil</w>
intro duc
di ed</w>
jan u
an i</w>
s end</w>
li er</w>
m l
intere sting</w>
tra de</w>
win d</w>
b ay
s ac
anc y</w>
sour ce</w>
b es</w>
org ani
ar ly</w>
lar ge</w>
ff ici
ta g</w>
u t</w>
de sp
o es</w>
tit le</w>
sy m
pic tures</w>
op en
wom en
sho wing</w>
ri a</w>
le ast</w>
lead ership</w>
cur rent</w>
elec tr
val ent
list ening</w>
c key</w>
gener al</w>
de ser
du ce</w>
; )</w>
c ent</w>
ðŁĺį ðŁĺį
sco tt</w>
po or</w>
selfi e</w>
ev ents</w>
i on</w>
wr ong</w>
de v</w>
h ill
sep te
cul ture</w>
l ine
sor ry</w>
s ent</w>
si ster</w>
ce pt</w>
k ri
no vember</w>
ar i</w>
announ ce</w>
z ation</w>
br an
g ent
d u</w>
l en
per s
f m</w>
mart in</w>
o p</w>
e mb
om e
midd le</w>
suc cess
pe ter</w>
janu ary</w>
f lu
rac ing</w>
d av
bi ke</w>
ðŁı »</w>
pe t</w>
shoo t</w>
profe ssi
feat uring</w>
septe mber</w>
now playing</w>
sta ur
z a
on ic</w>
qu ick</w>
bas ke
spe aking</w>
mil it
z er</w>
chick en</w>
b ell</w>
s ad</w>
co ast</w>
lo ving</w>
y ers</w>
d j</w>
pan el</w>
ver age</w>
s wit
ic ks</w>
b ou
califor nia</w>
s am</w>
paren ts</w>
er o</w>
k illed</w>
ph ys
jo bs</w>
mi gr
an th
e mo
hallo ween</w>
and er
c m</w>
compet ition</w>
e ag
s ket
sp ir
may be</w>
exclu sive</w>
app e
jour ney</w>
scre en</w>
for d
i o</w>
h ate</w>
u g
sou l</w>
her o</w>
soci ety</w>
sy n
gu it
n h
d j
as es</w>
im pre
ti me
sal es</w>
d d</w>
f ts</w>
summ it</w>
stun ning</w>
om s</w>
tur ned</w>
cle an</w>
sof t</w>
be at
re staur
de red</w>
en ces</w>
ma gic</w>
di o
sh ine</w>
gu est</w>
health y</w>
exhi b
stor ies</w>
po pu
n is</w>
el a</w>
bel ow</w>
fun ny</w>
resul ts</w>
s ne
cur rently</w>
ar d
down load</w>
f light</w>
m al</w>
f ine</w>
p ad
ch u
ent ed</w>
h at</w>
ðŁĳ ı
ste ve</w>
j o</w>
mar k
r at
b all
p c</w>
p on
b by</w>
o li
ar ts</w>
as ure</w>
bow l</w>
att ack</w>
mi c</w>
de ar</w>
ran ge</w>
en ter</w>
chocol ate</w>
br illi
ac cess</w>
, "</w>
? ??</w>
ch ap
con st
t n
mat ter</w>
blu e
gall ery</w>
em p
work shop</w>
lead ing</w>
y ours</w>
baske tball</w>
w anna</w>
th u
_ _</w>
mar ri
sle ep</w>
bi a</w>
ch e</w>
ma d</w>
imp act</w>
o wn
si r</w>
chan nel</w>
euro pe</w>
e sp
k itch
hosp ital</w>
w ra
roy al</w>
f s</w>
ne u
qu ar
ne y
ac ks</w>
ch ase</w>
pp y</w>
st al
at ely</w>
ti m</w>
dece mber</w>
r are</w>
per form
cre am</w>
we ight</w>
ch oo
ni ght
ha ven</w>
fr anc
kh an</w>
buil t</w>
hel ping</w>
tru st</w>
ty pe</w>
gol den</w>
ta x</w>
s now
s wi
di sa
questi ons</w>
ve y</w>
li ght
c n
cl oud</w>
thom as</w>
ag ed</w>
sh ou
te ams</w>
gr an
re ason</w>
a a</w>
you tube</w>
v p</w>
pi zz
manag er</w>
bur y</w>
cre dit</w>
tre at</w>
ma x</w>
i k
ma in
g ing</w>
de ad
pro bab
ye ah</w>
ã Ĥ
br and
so li
pl ant</w>
ta yl
gir l
ðŁĺ Ń</w>
nam ent</w>
au to
mess age</w>
ko re
n ur
ter r
ag u
ma p</w>
sen ting</w>
lo ves</w>
gi ves</w>
g ab
z en</w>
ro bert</w>
con fir
w ars</w>
o m</w>
sta in
cam era</w>
and er</w>
won der</w>
a b</w>
ca p</w>
s old</w>
su it</w>
wal king</w>
contin ue</w>
effe c
dau ghter</w>
d anc
cha in</w>
mul ti
ki d
y an
champi on</w>
v o</w>
ta ins</w>
ho st</w>
min i</w>
mis sed</w>
re sc
ly n
fin ish</w>
del icious</w>
s as
tayl or</w>
i b
pro mis
produc ts</w>
moun tain</w>
flori da</w>
regi ster</w>
tre at
rec ent</w>
fe male</w>
boo th</w>
mat t</w>
ve hic
s op
mo tor
suppor ting</w>
phi c</w>
ex tre
dr ink</w>
lan e</w>
th ird</w>
p s
con stru
ce re
far m</w>
ðŁİ ī</w>
tu red</w>
ðŁĳ ī</w>
c ats</w>
a j
gi e</w>
shoo ting</w>
as ked</w>
paki stan</w>
am e
m b</w>
g il
leg al</w>
squ are</w>
in vol
dra w</w>
oo oo
!! !!
opportun ity</w>
p y
e i
b ts</w>
teach er</w>
charac ter</w>
john son</w>
br on
ly wood</w>
ch ine
c ing</w>
c ine
d ge
gam ing</w>
russi a</w>
ci a</w>
quo te</w>
ric h</w>
go v
flow ers</w>
sp iri
st in</w>
grow th</w>
ðŁı ¼</w>
comm er
j uni
mu m</w>
r an</w>
s na
a ren
c b
ac tor</w>
col or
si t</w>
pa ir</w>
ch i</w>
bo w</w>
acade my</w>
hel d</w>
r ang
me tal</w>
y l</w>
ac tive</w>
probab ly</w>
t ch</w>
need ed</w>
spe e
cho ice</w>
ital y</w>
ry an</w>
ðŁĩ º
flow er</w>
v it
m n</w>
found ation</w>
b ak
si ons</w>
ne igh
f loo
he ard</w>
re mo
fre sh
ing ing</w>
re f
to wn
cl ou
je sus</w>
spiri t</w>
cou ldn</w>
z es</w>
ðŁĴ Ļ</w>
willi ams</w>
pro ce
moder n</w>
pro cess</w>
sho es</w>
cre ated</w>
tri c</w>
issu es</w>
ann e</w>
att en
de but</w>
h r</w>
n it
sti g
a po
e ps</w>
z u
ã Ģ
si x</w>
car ds</w>
lan gu
fam ous</w>
tour nament</w>
se l</w>
e bay</w>
y n</w>
st on
k ick
announ ced</w>
k am
vo c
brilli ant</w>
hou se
che ese</w>
war ri
mus ic
ho ckey</w>
ðŁĺĤ ðŁĺĤ</w>
sk ills</w>
au tom
smar t</w>
med ical</w>
mon y</w>
e x</w>
gu ar
gi ve
pers onal</w>
ven tion</w>
al li
pre ss
flo or</w>
m c</w>
victor y</w>
hi m
simp le</w>
th or
ðŁĩº ðŁĩ
ta il</w>
lu cky</w>
ale x</w>
qu ite</w>
bo t
ssi ons</w>
chall eng
c ann
amaz on</w>
h ell</w>
b ought</w>
) :</w>
ed y</w>
secre t</w>
produc tion</w>
inde pend
de fe
ad ded</w>
p r</w>
p ag
be d
gre atest</w>
with in</w>
j ay</w>
ðŁ ¥
ire land</w>
re ly</w>
s d</w>
te xt</w>
dri ving</w>
pro gram
spe ed</w>
col um
str on
Ã ©</w>
fore st</w>
â ĸ
mach ine</w>
co in</w>
sc ar
oun t</w>
bi e</w>
¡ ï¸ı</w>
por tra
comm on</w>
wre st
recei ved</w>
kno w
inve st
pl ans</w>
ac cor
ad op
ter y</w>
re ali
p p</w>
k al
art work</w>
me an
go d
inste ad</w>
an ci
motiv ation</w>
as ing</w>
inspir ation</w>
up coming</w>
polit ical</w>
euro pe
m ers</w>
heav y</w>
ðŁĳ į</w>
fe bru
scot land</w>
ou gh
b t</w>
bo ss</w>
sche du
spe ak</w>
n ick
u red</w>
in o
e k
ri sk</w>
tor y</w>
pres ents</w>
b on</w>
ru g
st ates</w>
exhib ition</w>
il o
m ill
br ought</w>
: -)</w>
tou ri
com e
offici ally</w>
champi ons</w>
do ors</w>
re p
po se</w>
ex tra</w>
k ings</w>
soc cer</w>
squ ad</w>
app lic
at a</w>
some times</w>
t ari
excell ent</w>
ðŁĺ ĺ
stra ight</w>
car ol
ri p</w>
âĢ į
gra phic</w>
m ol
elec tion</w>
febru ary</w>
as ons</w>
l i</w>
di r
m t
n ick</w>
u su
m rs</w>
com ics</w>
inst itu
cor por
v i</w>
ðŁĻ ı
tu ral</w>
di se
ac ci
we are
am ong</w>
sho pping</w>
t ill</w>
wh at
cha ir</w>
sp an
chine se</w>
innov ation</w>
jo y</w>
k it</w>
cent ury</w>
ob ama</w>
ph ili
f c
re ach</w>
c iti
ul ous</w>
n on
d ang
happ ening</w>
bur n</w>
p el
or ange</w>
d v
k ick</w>
cla im
ing ham</w>
ph y</w>
no v</w>
pod cast</w>
wh i
ni ghts</w>
ear lier</w>
be ar</w>
la h</w>
exc iting</w>
or a</w>
gi ven</w>
s lo
memor ies</w>
contin ues</w>
produc t</w>
gh o
c d
kno ws</w>
ðŁİ ī
publi shed</w>
discu ss</w>
y ard</w>
i phone</w>
tri es</w>
w all
fe b</w>
are n</w>
tru th</w>
win ners</w>
tu re
diti onal</w>
milit ary</w>
proble m</w>
m and
do g
lo ss</w>
c ric
can adi
ve ter
villa ge</w>
" ,</w>
y r</w>
un g</w>
don ald</w>
ag ing</w>
bir ds</w>
sci enti
le s
th is
regi on</w>
tic al</w>
itt en</w>
il a</w>
ðŁĺ İ</w>
d ad
di am
abo ve</w>
st ren
li t</w>
p ir
la b</w>
fo cus</w>
bus y</w>
d ur
app ly</w>
s ma
auth or</w>
ac i
exe cu
dom in
re la
jack son</w>
at o</w>
wash ington</w>
ðŁĻ Į
k ill</w>
popu lar</w>
ce ment</w>
ro ad
e ating</w>
loc ation</w>
v ent
ar re
n an
cu sto
advent ure</w>
or din
spor t
ul t</w>
lo ck</w>
questi on</w>
dri ver</w>
land sc
on i
k ins</w>
p d
jor dan</w>
te red</w>
k k
a f</w>
chil d
s p</w>
just in</w>
en i
s elling</w>
z o
wh it
bo ston</w>
partic ip
sig ning</w>
happ ened</w>
he at</w>
m am
dre ams</w>
lo ws</w>
gra ph</w>
the day</w>
head ing</w>
br o</w>
ble ssed</w>
vi c</w>
ve gas</w>
h d</w>
in ning</w>
ro man
and ro
den ti
u se
c it
pro gress</w>
writ er</w>
bo b</w>
ff s</w>
gro wing</w>
b ly</w>
aw are
ex am
sp ent</w>
be t</w>
sc ore</w>
bey ond</w>
do cu
ad el
s f
cou ra
colla bor
in c</w>
priv ate</w>
bo at</w>
* *</w>
z one</w>
p ha
b ill
to tal</w>
plan ning</w>
to wards</w>
plac es</w>
pre view</w>
cre ative</w>
dam n</w>
ide as</w>
se ems</w>
po ten
say ing</w>
di splay</w>
s w</w>
a qu
lou is</w>
by e</w>
li l</w>
e mail</w>
we stern</w>
ger many</w>
ell er</w>
re s
f ant
ment ary</w>
de als</w>
ric hard</w>
jer sey</w>
stren g
ra d
pizz a</w>
mon d</w>
w are</w>
l ac
g i</w>
ar chi
c d</w>
yel low</w>
rec ently</w>
re ach
à ¹
kitch en</w>
desig ned</w>
tr y
g al</w>
restaur ant</w>
at ure</w>
w w</w>
j as
l ma
ðŁĳ Į</w>
pa in</w>
av o
min ute</w>
sch ol
ther ap
tic ket</w>
d ry</w>
jap an
diti ons</w>
ter ri
sel ves</w>
happ en</w>
t up</w>
ma g</w>
cop y</w>
sh er</w>
free dom</w>
f ile</w>
speci ally</w>
tor onto</w>
lo ad
g ary</w>
re y</w>
answ er</w>
lo y
cau ght</w>
pri ze</w>
u ne
fic ation</w>
ni ger
sy d
tou ch</w>
feat ure</w>
jaz z</w>
recor ds</w>
him self</w>
di sh</w>
ro ber
spot ted</w>
ma ster
wa ve</w>
fin als</w>
bu ll
for um</w>
al d
re comm
ch a</w>
a e</w>
d oo
inst ru
tru ly</w>
l g
in k
bro thers</w>
de st</w>
j im</w>
m it</w>
clo sed</w>
is on</w>
tri ed</w>
s anta</w>
af fe
w an</w>
hor se</w>
g row</w>
camp us</w>
rel ation
nati ve</w>
jour n
go v</w>
o ct</w>
k it
b ound</w>
part ner</w>
re ma
crow d</w>
! )</w>
c alls</w>
ra il
qu ali
solu tion</w>
con test</w>
con vers
sn ap
b ase</w>
in iti
ta x
y e</w>
ent repre
it or</w>
constru ction</w>
foo d
present ed</w>
n ings</w>
cli mate</w>
k m</w>
mo del
b j
blo ck</w>
present ation</w>
dre am
fi x
c alling</w>
bus ine
con gress</w>
under stand</w>
we b</w>
val ue</w>
ï¸ı âĥ£</w>
mex ico</w>
it ely</w>
ki m</w>
char ity</w>
ref lec
bl an
fl ying</w>
anal y
famil ies</w>
b and
reci pe</w>
celebr ation</w>
ac cep
ar y
to t
g b</w>
intere sted</w>
cap tain</w>
âĻ ¥
ti p</w>
ab sol
bra z
inve stig
o logy</w>
de c</w>
tru ck</w>
ver ing</w>
c lear
don t</w>
go tta</w>
ad vis
beg ins</w>
ma ss
de scri
blo ck
k im
davi d
son gs</w>
memor ial</w>
feat ures</w>
su stain
' .</w>
gra b</w>
jo se
v a
con serv
se ts</w>
man chester</w>
fi ghting</w>
de gre
ag a</w>
in d</w>
sle ep
pos ition</w>
ha ir
sig ns</w>
pol icy</w>
it o</w>
al ert</w>
st am
sp end</w>
w y
absol ut
d m</w>
anim al</w>
my ster
success ful</w>
proble ms</w>
ro bo
k ay
gar den
p d</w>
may or</w>
d ale</w>
t ol
off ers</w>
vis iting</w>
friend ly</w>
tre es</w>
offic er</w>
accoun t</w>
ke vin</w>
ðŁĳ į
gi ant</w>
contin u
con su
tr act</w>
n fl</w>
ðŁĺ Ĭ
h q</w>
b ility</w>
a ar
dis ney</w>
te en</w>
on ed</w>
wh ite
tra iler</w>
de dic
al one</w>
absolut ely</w>
dig ital
willi am</w>
in ation</w>
s wa
e e</w>
enti re</w>
ger man</w>
ro ll
h its</w>
co st</w>
st ay
th a</w>
ali ve</w>
accor ding</w>
co t
liter ally</w>
her it
re ti
haha ha</w>
exper i
li kes</w>
g t</w>
ste el</w>
__ __
ch air
christi an</w>
to wer</w>
diffe rence</w>
m d</w>
tre ss</w>
mi d</w>
prin ce</w>
afric an</w>
fe der
foo t</w>
car ri
ser ved</w>
r ice</w>
sh all</w>
feat ured</w>
ck er</w>
rec ru
po e
sen se</w>
ni fic
com edy</w>
cont ent</w>
f at
po sted</w>
con tribu
tim ate</w>
li ver
mb le</w>
inter net</w>
ag e
europe an</w>
cl ing</w>
gla d</w>
ff ic
sc o</w>
ak es</w>
el le</w>
ter min
ton y</w>
p ale
col our</w>
seri ous</w>
pat ri
movi es</w>
b m
professi onal</w>
ad o
al u
br inging</w>
f alls</w>
isra el</w>
ter m</w>
langu age</w>
bro ok
man n</w>
commun ic
can not</w>
ac ti
p he
y an</w>
entrepre ne
tur key</w>
log ical</w>
lon g
ar m</w>
ur s</w>
work ers</w>
ing ly</w>
gg s</w>
ri c</w>
tu al</w>
recei ve</w>
op ens</w>
ge ar</w>
soci al
fe et</w>
c king</w>
ad ver
fin an
fe els</w>
sp la
h r
ea ster</w>
bra in</w>
ã ģ
fi g
le dge</w>
ne arly</w>
prote ct</w>
ma ssive</w>
e th
aw a
ðŁĺ ģ</w>
y rs</w>
aware ness</w>
defin itely</w>
k n
imag ine</w>
k u</w>
syste ms</w>
ðŁĳ ı</w>
f as
li k
provi de</w>
am o
disco ver</w>
inf lu
ma ker</w>
g az
fit ness</w>
stre et
er s
te d
w c
ys is</w>
pos itive</w>
hel ped</w>
que st</w>
andre w</w>
bra d
b in
hang ing</w>
l ing
bri ght</w>
se ction</w>
ma ss</w>
ðŁĻ Į</w>
follow ers</w>
ho sting</w>
tem por
fla g</w>
a ve</w>
let ter</w>
k ur
re qui
of ten</w>
cry p
su ff
âļ ½
russi an</w>
treat ment</w>
al le
ha y
l an</w>
keep ing</w>
hol y</w>
power ful</w>
pre dic
fun d</w>
e specially</w>
windo w</w>
je wel
il y
ðŁĴ ľ</w>
gener ation</w>
app a
seri ously</w>
o d
ðŁĺĤðŁĺĤ ðŁĺĤ</w>
cer ti
iri sh</w>
ðŁĳ Į
mi ami</w>
be th</w>
v ity</w>
se cu
che f</w>
cri me</w>
graph y</w>
ma x
arti sts</w>
re volu
gu ard</w>
spee ch</w>
u c
upd ates</w>
fac es</w>
st ant</w>
chang ed</w>
repor ts</w>
low er</w>
pe ar
n c</w>
k il
loo ked</w>
spe aker</w>
s f</w>
re spect</w>
ok ay</w>
oce an</w>
s itting</w>
architec ture</w>
tra il</w>
se at</w>
i ra
le g</w>
japan ese</w>
d am</w>
u lar</w>
sw im
polit ics</w>
finan cial</w>
ol d
mou th</w>
at temp
de stin
fi shing</w>
atten tion</w>
me m
chang es</w>
deci ded</w>
reli gi
g in</w>
c av
z z</w>
ad am</w>
ma c</w>
wr ite</w>
beg in</w>
sc ul
al ter
is s</w>
ath on</w>
imag es</w>
m oo
jo ined</w>
ðŁĺ ī</w>
âŀ ¡ï¸ı</w>
pas sed</w>
mu sli
h ir
lar gest</w>
cam er
com ic</w>
gh ted</w>
rug by</w>
bur gh</w>
gg ing</w>
te sting</w>
pre par
lau gh
al ed</w>
impro ve</w>
beli ev
adv ice</w>
sha res</w>
he art
tur ning</w>
s b</w>
t el
caf e</w>
n es</w>
dani el</w>
pat ter
t z</w>
se tt
par k
c and
st ick</w>
happ ens</w>
bri an</w>
ne west</w>
e pic</w>
ad or
ki es</w>
war ning</w>
anim als</w>
custo m</w>
ar c
di an</w>
gol d
cor e</w>
t f</w>
c ity
pan ts</w>
re ality</w>
con fi
in ju
fo x
gu il
k new</w>
âĺ º
cor rec
itu de</w>
d den</w>
. #</w>
re duc
pas s
f on
y a
ow ner</w>
re turns</w>
n c
e ast
ap ol
in sur
th o</w>
si m
juni or</w>
be e</w>
ang el
att le</w>
elec tric</w>
hor ror</w>
cra sh</w>
e ye
pat h</w>
sou thern</w>
emplo ye
ge o
t an</w>
ha z
r ally</w>
ðŁı »
proper ty</w>
was n</w>
enjo yed</w>
gre y</w>
g as
bre w
nor thern</w>
hol ding</w>
g p</w>
ta ke
ch art</w>
ly n</w>
dr ama</w>
z o</w>
pa id</w>
throw back</w>
cu p
discu ssion</w>
down town</w>
w ill
le w
b is
t ary</w>
bre ad</w>
up on</w>
r ate</w>
teach ers</w>
it ation</w>
anc ed</w>
cy cle</w>
choo se</w>
d c
ir an</w>
co w
da ve</w>
ra ise</w>
prin cess</w>
fa ith</w>
- ></w>
indu stri
sp ain</w>
guit ar</w>
fac ts</w>
m n
sp en
cour te
go tt
projec ts</w>
au di
o sc
pe ter
s and</w>
intere st</w>
happ iness</w>
ven ue</w>
sol di
surpri se</w>
poten tial</w>
per io
custom er</w>
i i
g ni
manu fac
e co
bro ken</w>
sing er</w>
vel s</w>
wal es</w>
hu s
in j
f our
tal ent</w>
d ying</w>
mat the
fil m
jo ining</w>
s ell</w>
j ar
lma o</w>
sur ger
bb c
sour ces</w>
au stin</w>
ni k
char les</w>
f am</w>
prin ci
ange l</w>
cas h</w>
lo t
o red</w>
pla ys</w>
pl ate</w>
don e
memor y</w>
br ings</w>
n ba</w>
solu tions</w>
teach ing</w>
gr ace</w>
cir cu
hel ps</w>
foun der</w>
mar y
expl ore</w>
de cor
par ts</w>
ch o</w>
inte gr
ha u
is es</w>
pu tting</w>
in er</w>
r it
v y</w>
mic hel
blu es</w>
every day</w>
for ms</w>
bi o</w>
ye ar
p in</w>
t ter</w>
spr ing
) )</w>
po t</w>
al ing</w>
perform ing</w>
sh an
plan et</w>
mus ical</w>
head s</w>
it alian</w>
stru gg
âĢį âĻ
w ings</w>
pu mp
h h</w>
tr ou
a id</w>
pri me</w>
ear th
pa int</w>
mon t
am y</w>
bb c</w>
fab ulous</w>
fru it</w>
andro id</w>
bour ne</w>
cere mony</w>
enti al</w>
? ?
deb ate</w>
on ing</w>
dra ft</w>
sol ar</w>
t x</w>
j am</w>
cor n
!! !!!</w>
bro o
mil k</w>
po sed</w>
o hi
mo vement</w>
b ren
part ner
p g</w>
et te</w>
ar ies</w>
sh out</w>
n g</w>
leav ing</w>
t ells</w>
sen s
ta ste</w>
kel ly</w>
wor l
gy m</w>
ric h
e gy
pi d</w>
ma s
â Ĥ
courte sy</w>
fran k</w>
incre ase</w>
wr itten</w>
pp ers</w>
re l</w>
ha i</w>
s as</w>
s ound
tt i</w>
w ich</w>
ri ver
.. ."</w>
a g</w>
fel low</w>
ro me</w>
sm all
gen cy</w>
ic an</w>
lux ury</w>
pro of</w>
me t
wild life</w>
mom ents</w>
ra ther</w>
cor ner</w>
com pe
canadi an</w>
lik ely</w>
therap y</w>
li am
econom ic</w>
indi e
rou te</w>
fi ght
ho pe
se tting</w>
ant ly</w>
cro ss
fant asy</w>
de e
sket ch</w>
comp li
ym i</w>
ru les</w>
engine ering</w>
fig ure</w>
ro w
. ,</w>
f w</w>
syd ney</w>
w ou
t ation</w>
dre w</w>
us es</w>
the re
sp read</w>
struc ture</w>
pat rick</w>
appa rently</w>
ro s
h ills</w>
w we</w>
ann y</w>
com mission</w>
di v
f ying</w>
con sul
anal ysis</w>
ex i
ten nis</w>
vehic le</w>
ðŁĺŃ ðŁĺŃ
as s</w>
high ly</w>
op ened</w>
b ann
ðŁĴ Ļ
mp h</w>
wi shing</w>
v or</w>
fi f
give away</w>
r r
ra y
je ss
g at
ic ymi</w>
x it</w>
high est</w>
yor k
pi e</w>
invol ved</w>
high er</w>
ri e</w>
mal ay
int elli
desp ite</w>
che e
sar ah</w>
be an</w>
reco gni
ar sen
tal ented</w>
pas sion</w>
ic h
ab c</w>
lead s</w>
dise ase</w>
v is</w>
se c</w>
pre senting</w>
m illi
hol e</w>
sho ts</w>
de part
surger y</w>
gov t</w>
b in</w>
du al</w>
e vi
lon ger</w>
ev ol
scre en
portra it</w>
et c</w>
lo se</w>
ch at
p en</w>
p i</w>
om a</w>
s ick</w>
er c
compan ies</w>
en try</w>
plan e</w>
gr y</w>
ven e
liver pool</w>
premi ere</w>
sha red</w>
a red</w>
fil ms</w>
ir a</w>
holi days</w>
cric ket</w>
ici an</w>
v ing
. )</w>
ul timate</w>
di vision</w>
con duc
se pt</w>
for ces</w>
mon t</w>
s mart
disa pp
sun shine</w>
in d
b less</w>
ma de
col ors</w>
fran k
ir on</w>
bott le</w>
s go
m ood</w>
j ason</w>
er ic</w>
bir th</w>
te en
respon se</w>
tar get</w>
state ment</w>
fe ar</w>
th el
al um
ar ab
bl in</w>
direc tion</w>
ste ps</w>
er ial</w>
wor ked</w>
at l
ðŁĴ ķ
fel t</w>
pol i</w>
scen es</w>
hom es</w>
b ell
e at
ate ful</w>
t in</w>
l ace</w>
fol ks</w>
p se</w>
an n</w>
wis dom</w>
fa v</w>
but ter
s r</w>
are as</w>
sm oo
bi z</w>
dg es</w>
app o
mo re
the m
effe ct</w>
windo ws</w>
sun ny</w>
cap ital</w>
tot ally</w>
c ities</w>
gr ant</w>
mb ers</w>
s low</w>
au tu
il ities</w>
w ro
ri sing</w>
st ics</w>
viol ence</w>
i gh</w>
qu ot
h it
t c</w>
herit age</w>
bu ff
ne s
z ar
den tial</w>
ex ac
ed ge</w>
de ep
aren a</w>
be came</w>
benef its</w>
mar ks</w>
mb er
a z</w>
am es</w>
pre ci
dra gon</w>
re g
d ings</w>
do s</w>
ðŁĴ ª
n el
s ity</w>
me al</w>
di st
leg end
pur chase</w>
pic al</w>
st ick
f at</w>
du ba
profe ss
car to
pro f</w>
coun tries</w>
respon si
se qu
fa b</w>
tribu te</w>
hon ored</w>
prac tic
pur ple</w>
an ton
pa red</w>
t ough</w>
summ er
environ ment</w>
s ons</w>
ðŁĻ ı</w>
m ps</w>
gi es</w>
her oes</w>
t elling</w>
hen ry</w>
f en
know ledge</w>
